{"version":"1.0","truncation":null,"padding":null,"added_tokens":[{"id":0,"special":true,"content":"<cls>","single_word":false,"lstrip":false,"rstrip":false,"normalized":false},{"id":1,"special":true,"content":"<eos>","single_word":false,"lstrip":false,"rstrip":false,"normalized":false},{"id":2,"special":true,"content":"<mask>","single_word":false,"lstrip":false,"rstrip":false,"normalized":false},{"id":3,"special":true,"content":"<unk>","single_word":false,"lstrip":false,"rstrip":false,"normalized":false},{"id":4,"special":true,"content":"<pad>","single_word":false,"lstrip":false,"rstrip":false,"normalized":false}],"normalizer":{"type":"NFKC"},"pre_tokenizer":{"type":"Metaspace","replacement":"▁","add_prefix_space":true},"post_processor":null,"decoder":{"type":"Metaspace","replacement":"▁","add_prefix_space":true},"model":{"type":"BPE","dropout":null,"unk_token":null,"continuing_subword_prefix":null,"end_of_word_suffix":null,"fuse_unk":false,"vocab":{"<cls>":0,"<eos>":1,"<mask>":2,"<unk>":3,"<pad>":4,"\n":5,"\r":6,"!":7,"\"":8,"#":9,"%":10,"&":11,"'":12,"(":13,")":14,"*":15,"+":16,",":17,"-":18,".":19,"/":20,"0":21,"1":22,"2":23,"3":24,"4":25,"5":26,"6":27,"7":28,"8":29,"9":30,":":31,"<":32,"=":33,">":34,"?":35,"A":36,"B":37,"C":38,"D":39,"E":40,"F":41,"G":42,"H":43,"I":44,"J":45,"K":46,"L":47,"M":48,"N":49,"O":50,"P":51,"Q":52,"R":53,"S":54,"T":55,"U":56,"V":57,"W":58,"X":59,"Y":60,"Z":61,"[":62,"\\":63,"]":64,"^":65,"_":66,"`":67,"a":68,"b":69,"c":70,"d":71,"e":72,"f":73,"g":74,"h":75,"i":76,"k":77,"l":78,"m":79,"n":80,"o":81,"p":82,"r":83,"s":84,"t":85,"u":86,"v":87,"w":88,"x":89,"y":90,"z":91,"|":92,"~":93,"«":94,"°":95,"·":96,"»":97,"×":98,"Δ":99,"α":100,"μ":101,"π":102,"ᆞ":103,"–":104,"‘":105,"’":106,"“":107,"”":108,"⁄":109,"▁":110,"〈":111,"〉":112,"《":113,"》":114,"「":115,"」":116,"『":117,"』":118,"・":119,"가":120,"각":121,"간":122,"갈":123,"감":124,"갑":125,"값":126,"갔":127,"강":128,"갖":129,"같":130,"개":131,"객":132,"갬":133,"갱":134,"거":135,"건":136,"걸":137,"검":138,"것":139,"게":140,"겐":141,"겠":142,"겨":143,"격":144,"겪":145,"견":146,"결":147,"겸":148,"겼":149,"경":150,"계":151,"고":152,"곡":153,"곤":154,"곧":155,"골":156,"곱":157,"곳":158,"공":159,"과":160,"곽":161,"관":162,"괄":163,"광":164,"괴":165,"괵":166,"교":167,"구":168,"국":169,"군":170,"굳":171,"굴":172,"궁":173,"권":174,"궤":175,"귀":176,"규":177,"균":178,"그":179,"극":180,"근":181,"글":182,"금":183,"급":184,"긋":185,"긍":186,"기":187,"긴":188,"길":189,"김":190,"깊":191,"까":192,"깔":193,"깝":194,"깥":195,"깨":196,"꺼":197,"꺾":198,"께":199,"꼬":200,"꼭":201,"꼴":202,"꼽":203,"꾸":204,"꾼":205,"뀌":206,"끄":207,"끊":208,"끌":209,"끔":210,"끝":211,"끼":212,"낀":213,"나":214,"낙":215,"난":216,"날":217,"남":218,"납":219,"났":220,"낭":221,"낮":222,"낱":223,"낳":224,"내":225,"낸":226,"낼":227,"냈":228,"냉":229,"냐":230,"너":231,"넌":232,"널":233,"넓":234,"넘":235,"넣":236,"네":237,"넷":238,"녀":239,"년":240,"념":241,"노":242,"녹":243,"논":244,"놀":245,"농":246,"높":247,"놓":248,"뇌":249,"누":250,"눅":251,"눈":252,"눌":253,"눗":254,"뉘":255,"뉜":256,"뉴":257,"느":258,"는":259,"늘":260,"능":261,"늦":262,"니":263,"닉":264,"닌":265,"닐":266,"님":267,"닙":268,"닛":269,"닝":270,"다":271,"닥":272,"단":273,"닫":274,"달":275,"닭":276,"닮":277,"담":278,"답":279,"닷":280,"당":281,"닿":282,"대":283,"댓":284,"더":285,"덕":286,"던":287,"덜":288,"덤":289,"덧":290,"덩":291,"덮":292,"데":293,"덴":294,"델":295,"뎀":296,"도":297,"독":298,"돈":299,"돌":300,"돕":301,"동":302,"돼":303,"됐":304,"되":305,"된":306,"될":307,"됨":308,"두":309,"둔":310,"둘":311,"둥":312,"뒤":313,"뒷":314,"듈":315,"드":316,"득":317,"든":318,"듣":319,"들":320,"듬":321,"듭":322,"듯":323,"등":324,"디":325,"딩":326,"따":327,"딴":328,"딸":329,"땅":330,"때":331,"떠":332,"떤":333,"떨":334,"떻":335,"또":336,"똑":337,"뛰":338,"뜨":339,"뜻":340,"띄":341,"띠":342,"라":343,"락":344,"란":345,"랄":346,"람":347,"랍":348,"랐":349,"랑":350,"래":351,"랙":352,"랜":353,"램":354,"랫":355,"랭":356,"략":357,"량":358,"러":359,"럭":360,"런":361,"럴":362,"럼":363,"럽":364,"럿":365,"렀":366,"렇":367,"레":368,"렉":369,"렌":370,"렙":371,"렛":372,"렝":373,"려":374,"력":375,"련":376,"렬":377,"렴":378,"렵":379,"렸":380,"령":381,"례":382,"로":383,"록":384,"론":385,"롤":386,"롬":387,"롭":388,"롯":389,"롱":390,"뢰":391,"료":392,"루":393,"룩":394,"룬":395,"룰":396,"룹":397,"뤄":398,"뤼":399,"류":400,"륙":401,"률":402,"륨":403,"륭":404,"르":405,"른":406,"를":407,"름":408,"릉":409,"리":410,"릭":411,"린":412,"릴":413,"림":414,"립":415,"릿":416,"링":417,"마":418,"막":419,"만":420,"많":421,"말":422,"맛":423,"망":424,"맞":425,"맡":426,"매":427,"맥":428,"맨":429,"맵":430,"맹":431,"맺":432,"머":433,"먹":434,"먼":435,"멀":436,"멈":437,"메":438,"멘":439,"멜":440,"멤":441,"며":442,"면":443,"멸":444,"명":445,"몇":446,"모":447,"목":448,"몫":449,"몬":450,"몰":451,"몸":452,"못":453,"몽":454,"뫼":455,"묘":456,"무":457,"묵":458,"묶":459,"문":460,"묻":461,"물":462,"뮌":463,"뮤":464,"뮬":465,"므":466,"미":467,"민":468,"믿":469,"밀":470,"밍":471,"및":472,"밑":473,"바":474,"박":475,"밖":476,"반":477,"받":478,"발":479,"밝":480,"밟":481,"밤":482,"방":483,"배":484,"백":485,"밴":486,"버":487,"번":488,"벌":489,"범":490,"법":491,"벗":492,"베":493,"벡":494,"벤":495,"벨":496,"벳":497,"벽":498,"변":499,"별":500,"병":501,"볕":502,"보":503,"복":504,"본":505,"볼":506,"봄":507,"봇":508,"봉":509,"부":510,"북":511,"분":512,"불":513,"붉":514,"붕":515,"붙":516,"뷔":517,"뷰":518,"브":519,"븐":520,"블":521,"비":522,"빅":523,"빈":524,"빌":525,"빗":526,"빙":527,"빚":528,"빛":529,"빠":530,"빨":531,"빵":532,"빼":533,"뽑":534,"뿌":535,"뿐":536,"사":537,"삭":538,"산":539,"살":540,"삶":541,"삼":542,"삽":543,"삿":544,"상":545,"새":546,"색":547,"샌":548,"생":549,"샤":550,"서":551,"석":552,"섞":553,"선":554,"설":555,"섬":556,"섭":557,"섯":558,"섰":559,"성":560,"세":561,"센":562,"셀":563,"셈":564,"셋":565,"셔":566,"션":567,"셜":568,"셴":569,"소":570,"속":571,"손":572,"솔":573,"솟":574,"송":575,"쇄":576,"쇠":577,"쇼":578,"수":579,"숙":580,"순":581,"술":582,"숨":583,"숫":584,"숭":585,"쉬":586,"쉽":587,"슈":588,"슘":589,"스":590,"슨":591,"슬":592,"습":593,"슷":594,"승":595,"시":596,"식":597,"신":598,"실":599,"심":600,"십":601,"싯":602,"싱":603,"싶":604,"싸":605,"싼":606,"쌍":607,"쌓":608,"써":609,"썼":610,"쏟":611,"쓰":612,"쓴":613,"쓸":614,"씌":615,"씨":616,"씩":617,"씬":618,"아":619,"악":620,"안":621,"않":622,"알":623,"암":624,"압":625,"앗":626,"았":627,"앙":628,"앞":629,"애":630,"액":631,"앤":632,"앨":633,"앵":634,"야":635,"약":636,"양":637,"어":638,"억":639,"언":640,"얻":641,"얼":642,"엄":643,"업":644,"없":645,"엇":646,"었":647,"에":648,"엑":649,"엔":650,"엘":651,"여":652,"역":653,"연":654,"열":655,"염":656,"였":657,"영":658,"옆":659,"예":660,"옛":661,"오":662,"옥":663,"온":664,"올":665,"옮":666,"옷":667,"옹":668,"와":669,"완":670,"왓":671,"왔":672,"왕":673,"왜":674,"외":675,"왼":676,"요":677,"욕":678,"용":679,"우":680,"욱":681,"운":682,"울":683,"움":684,"웃":685,"웅":686,"워":687,"원":688,"월":689,"웠":690,"웨":691,"웰":692,"웹":693,"위":694,"윈":695,"윌":696,"유":697,"육":698,"윤":699,"율":700,"융":701,"으":702,"은":703,"을":704,"음":705,"응":706,"의":707,"이":708,"익":709,"인":710,"일":711,"읽":712,"잃":713,"임":714,"입":715,"잇":716,"있":717,"잉":718,"자":719,"작":720,"잔":721,"잘":722,"잠":723,"잡":724,"장":725,"재":726,"쟁":727,"저":728,"적":729,"전":730,"절":731,"젊":732,"점":733,"접":734,"정":735,"젖":736,"제":737,"젝":738,"젠":739,"젤":740,"져":741,"졌":742,"조":743,"족":744,"존":745,"졸":746,"좀":747,"종":748,"좋":749,"좌":750,"죄":751,"주":752,"죽":753,"준":754,"줄":755,"중":756,"쥘":757,"즈":758,"즉":759,"즌":760,"즐":761,"즘":762,"증":763,"지":764,"직":765,"진":766,"질":767,"짐":768,"집":769,"짓":770,"징":771,"짜":772,"짝":773,"짧":774,"째":775,"쪽":776,"쯤":777,"찍":778,"차":779,"착":780,"찬":781,"찰":782,"참":783,"창":784,"찾":785,"채":786,"책":787,"처":788,"척":789,"천":790,"철":791,"첨":792,"첩":793,"첫":794,"청":795,"체":796,"첸":797,"첼":798,"쳐":799,"쳤":800,"초":801,"촉":802,"촌":803,"촛":804,"총":805,"최":806,"추":807,"축":808,"춘":809,"출":810,"춤":811,"충":812,"취":813,"츠":814,"측":815,"층":816,"치":817,"칙":818,"친":819,"칠":820,"침":821,"칭":822,"카":823,"칸":824,"칼":825,"캐":826,"캘":827,"캠":828,"커":829,"컨":830,"컫":831,"컬":832,"컴":833,"컵":834,"케":835,"켄":836,"켈":837,"켓":838,"켜":839,"켤":840,"켰":841,"코":842,"콘":843,"콜":844,"콩":845,"쾌":846,"쾰":847,"쿄":848,"쿠":849,"쿨":850,"쿼":851,"퀴":852,"큐":853,"크":854,"큰":855,"클":856,"큼":857,"키":858,"킨":859,"킬":860,"킹":861,"타":862,"탁":863,"탄":864,"탈":865,"탐":866,"탑":867,"탓":868,"탕":869,"태":870,"택":871,"탠":872,"터":873,"턴":874,"털":875,"테":876,"텍":877,"텐":878,"텔":879,"템":880,"토":881,"톤":882,"톨":883,"톱":884,"통":885,"퇴":886,"투":887,"튀":888,"튜":889,"트":890,"특":891,"튼":892,"틀":893,"틈":894,"티":895,"틱":896,"틴":897,"팀":898,"팅":899,"파":900,"판":901,"팔":902,"팜":903,"패":904,"팩":905,"팬":906,"팽":907,"퍼":908,"페":909,"펜":910,"펠":911,"펴":912,"편":913,"펼":914,"평":915,"폐":916,"포":917,"폭":918,"폰":919,"폴":920,"폼":921,"표":922,"푸":923,"풀":924,"품":925,"풍":926,"퓨":927,"프":928,"픈":929,"플":930,"피":931,"픽":932,"핀":933,"필":934,"핑":935,"하":936,"학":937,"한":938,"할":939,"함":940,"합":941,"항":942,"해":943,"핵":944,"핸":945,"햄":946,"햇":947,"했":948,"행":949,"향":950,"허":951,"헌":952,"헐":953,"험":954,"헝":955,"헤":956,"헨":957,"헬":958,"혀":959,"혁":960,"현":961,"혈":962,"혐":963,"협":964,"혔":965,"형":966,"혜":967,"호":968,"혹":969,"혼":970,"홀":971,"홈":972,"홍":973,"화":974,"확":975,"환":976,"활":977,"황":978,"회":979,"획":980,"횟":981,"횡":982,"효":983,"후":984,"훈":985,"훌":986,"훗":987,"훨":988,"훼":989,"휘":990,"휩":991,"휴":992,"흐":993,"흑":994,"흔":995,"흘":996,"흡":997,"흥":998,"희":999,"히":1000,"힉":1001,"힌":1002,"힐":1003,"힘":1004,"\r\n":1005,".\r\n":1006,"다.\r\n":1007,"▁이":1008,"▁있":1009,"으로":1010,"▁1":1011,"▁대":1012,"에서":1013,"▁수":1014,"▁사":1015,"▁그":1016,"▁정":1017,"▁한":1018,"▁다":1019,"▁가":1020,"▁기":1021,"▁2":1022,"▁있다.\r\n":1023,"하는":1024,"▁19":1025,"or":1026,"▁전":1027,"la":1028,"ula":1029,"for":1030,"form":1031,"ula_":1032,"formula_":1033,"▁formula_":1034,"▁일":1035,"이다.\r\n":1036,"▁공":1037,"▁위":1038,"▁하":1039,"▁지":1040,"▁자":1041,"▁시":1042,"▁등":1043,"▁중":1044,"었다.\r\n":1045,"▁것":1046,"하였":1047,"▁제":1048,"▁유":1049,"▁아":1050,"했다.\r\n":1051,"▁인":1052,"하여":1053,"▁노":1054,"▁같":1055,"▁주":1056,"00":1057,"고,":1058,"▁보":1059,"▁방":1060,"▁구":1061,"▁경":1062,"▁비":1063,"▁대한":1064,"며,":1065,"▁조":1066,"▁모":1067,"▁의":1068,"한다.\r\n":1069,"에는":1070,"▁나":1071,"▁연":1072,"▁국":1073,"▁발":1074,"▁서":1075,"▁문":1076,"▁여":1077,"▁개":1078,"▁상":1079,"하였다.\r\n":1080,"▁관":1081,"▁부":1082,"▁분":1083,"되었다.\r\n":1084,"▁때":1085,"▁실":1086,"적인":1087,"하고":1088,"▁따":1089,"▁또":1090,"▁소":1091,"▁다음":1092,"▁만":1093,"▁통":1094,"▁사용":1095,"라고":1096,"▁원":1097,"▁\"":1098,"▁고":1099,"▁미":1100,"▁동":1101,"▁물":1102,"▁3":1103,"▁표":1104,"▁선":1105,"적으로":1106,"▁않":1107,"▁도":1108,"▁성":1109,"▁후":1110,"▁세":1111,"▁함":1112,"▁운":1113,"된다.\r\n":1114,"▁'":1115,"▁해":1116,"▁계":1117,"▁불":1118,"▁200":1119,"▁오":1120,"▁결":1121,"▁집":1122,"부터":1123,"▁있는":1124,"▁반":1125,"▁영":1126,"▁내":1127,"지만":1128,"라는":1129,"▁한다.\r\n":1130,"▁현":1131,"▁생":1132,"▁양":1133,"다는":1134,"▁같은":1135,"▁따라":1136,"▁단":1137,"▁formula_1":1138,"▁무":1139,"▁작":1140,"▁프":1141,"0년":1142,"▁다음과":1143,"▁두":1144,"하기":1145,"▁변":1146,"▁어":1147,"무현":1148,"▁없":1149,"되어":1150,"▁스":1151,"까지":1152,"다고":1153,"으며,":1154,"▁또한":1155,"민국":1156,"▁노무현":1157,"▁마":1158,"▁많":1159,"▁5":1160,"▁거":1161,"▁각":1162,"에서는":1163,"▁과":1164,"▁에":1165,"들이":1166,"들은":1167,"▁최":1168,"면서":1169,"▁설":1170,"▁20":1171,"▁특":1172,"▁받":1173,"▁이후":1174,"▁당":1175,"▁4":1176,"▁대한민국":1177,"통령":1178,"▁예":1179,"▁초":1180,"▁우":1181,"▁추":1182,"▁진":1183,"정식":1184,"▁일본":1185,"들어":1186,"이나":1187,"▁말":1188,"▁바":1189,"▁경우":1190,"▁대통령":1191,"▁운동":1192,"▁강":1193,"으나":1194,"하게":1195,"▁대해":1196,"▁신":1197,"▁역":1198,"▁평":1199,"▁파":1200,"▁차":1201,"▁한국":1202,"▁알":1203,"▁되":1204,"수의":1205,"▁입":1206,"▁공간":1207,"▁나타":1208,"▁남":1209,"▁출":1210,"▁형":1211,"▁포":1212,"▁때문":1213,"▁그러":1214,"▁독":1215,"▁체":1216,"▁명":1217,"▁199":1218,"▁재":1219,"▁더":1220,"민주":1221,"주의":1222,"▁교":1223,"▁방정식":1224,"▁존":1225,"▁집합":1226,"▁적":1227,"▁다른":1228,"▁회":1229,"▁크":1230,"▁행":1231,"▁정의":1232,"▁시작":1233,"▁위해":1234,"▁외":1235,"▁종":1236,"▁장":1237,"에게":1238,"▁201":1239,"▁복":1240,"▁프로":1241,"▁P":1242,"▁확":1243,"너지":1244,"▁로":1245,"들의":1246,"▁학":1247,"▁법":1248,"프트":1249,"9년":1250,"▁속":1251,"▁화":1252,"▁직":1253,"기도":1254,"컴퓨":1255,"하지":1256,"▁가지":1257,"▁증":1258,"▁여러":1259,"▁것이":1260,"되었":1261,"▁그러나":1262,"▁언":1263,"▁위키":1264,"▁미국":1265,"컴퓨터":1266,"▁연구":1267,"▁함수":1268,"▁매":1269,"▁모든":1270,"8년":1271,"▁쓰":1272,"▁된다.\r\n":1273,"▁같이":1274,"▁서울":1275,"▁통해":1276,"▁에너지":1277,"▁간":1278,"에도":1279,"▁이용":1280,"되는":1281,"들을":1282,"▁음":1283,"였다.\r\n":1284,"2년":1285,"▁6":1286,"▁논":1287,"▁안":1288,"백과":1289,"▁임":1290,"▁즉":1291,"벡터":1292,"▁컴퓨터":1293,"▁사람":1294,"▁수학":1295,"▁그리":1296,"3년":1297,"▁김":1298,"이라고":1299,"▁그는":1300,"▁문제":1301,"7년":1302,"▁산":1303,"▁존재":1304,"▁및":1305,"▁약":1306,"▁조선":1307,"▁삼":1308,"▁들어":1309,"학교":1310,"▁되었다.\r\n":1311,"▁정부":1312,"▁배":1313,"4년":1314,"▁데":1315,"▁하는":1316,"▁열":1317,"▁일반":1318,"▁국가":1319,"▁게":1320,"면,":1321,"았다.\r\n":1322,"▁때문에":1323,"▁이론":1324,"▁가장":1325,"▁많은":1326,"▁점":1327,"▁사이":1328,"▁노동":1329,"▁formula_2":1330,"▁참":1331,"▁\r\n":1332,"으며":1333,"▁물리":1334,"▁요":1335,"▁의해":1336,"▁새":1337,"▁저":1338,"▁등의":1339,"는다.\r\n":1340,"▁당시":1341,"데,":1342,"5년":1343,"▁벡터":1344,"▁같다.\r\n":1345,"▁근":1346,"▁10":1347,"1년":1348,"▁8":1349,"▁이를":1350,"▁것을":1351,"6년":1352,"▁7":1353,"학의":1354,"▁건":1355,"▁라":1356,"▁자유":1357,"▁함께":1358,"▁활":1359,"▁이는":1360,"▁세계":1361,"▁식":1362,"웨어":1363,"▁달":1364,"▁198":1365,"▁표현":1366,"▁광":1367,"러한":1368,"운동":1369,"▁검":1370,"베르":1371,"▁이루":1372,"시아":1373,"▁자연":1374,"▁했다.\r\n":1375,"▁이러한":1376,"▁formula_3":1377,"▁리":1378,"자의":1379,"▁코":1380,"▁양자":1381,"▁《":1382,"▁처":1383,"▁편":1384,"▁얻":1385,"▁그의":1386,"▁번":1387,"기를":1388,"로,":1389,"▁후보":1390,"▁현재":1391,"▁합":1392,"▁총":1393,"하면":1394,"▁사건":1395,"▁것으로":1396,"▁또는":1397,"▁할":1398,"▁항":1399,"▁북":1400,"▁하나":1401,"▁것이다.\r\n":1402,"지만,":1403,"▁포함":1404,"▁formula_4":1405,"▁즉,":1406,"▁폴":1407,"▁197":1408,"▁여기":1409,"수는":1410,"이라는":1411,"이며,":1412,"자가":1413,"▁12":1414,"▁사회":1415,"▁그리고":1416,"▁9":1417,"▁필":1418,"0년대":1419,"▁아니":1420,"▁공식":1421,"프트웨어":1422,"▁태":1423,"▁애":1424,"▁감":1425,"▁목":1426,"▁질":1427,"리는":1428,"▁못":1429,"▁194":1430,"▁전자":1431,"▁주장":1432,"사를":1433,"▁관계":1434,"▁소프트웨어":1435,"▁따라서":1436,"▁C":1437,"▁‘":1438,"▁민주":1439,"세기":1440,"▁18":1441,"▁방법":1442,"▁취":1443,"국의":1444,"▁196":1445,"▁형태":1446,"▁박":1447,"▁군":1448,"수가":1449,"▁과학":1450,"▁큰":1451,"▁피":1452,"되고":1453,"수를":1454,"▁운영":1455,"거나":1456,"일보":1457,"자는":1458,"하다.\r\n":1459,"▁지역":1460,"▁구조":1461,"▁분야":1462,"▁실험":1463,"▁프로그":1464,"▁법칙":1465,"리를":1466,"▁폴링":1467,"어진":1468,"▁중심":1469,"▁계산":1470,"▁온":1471,"자를":1472,"▁현대":1473,"▁값":1474,"▁본":1475,"상을":1476,"성을":1477,"지는":1478,"▁가능":1479,"▁것은":1480,"▁위키백과":1481,"▁게임":1482,"▁커":1483,"부분":1484,"▁이름":1485,"▁11":1486,"▁정치":1487,"▁국민":1488,"하면서":1489,"▁등을":1490,"▁표기":1491,"도를":1492,"▁민":1493,"▁판":1494,"다\"":1495,"▁관련":1496,"▁청":1497,"▁있었다.\r\n":1498,"▁정보":1499,"▁G":1500,"▁갖":1501,"▁창":1502,"▁허":1503,"▁호":1504,"로서":1505,"보다":1506,"▁다시":1507,"▁모두":1508,"▁발전":1509,"▁개발":1510,"하고,":1511,"▁문서":1512,"▁0":1513,"역학":1514,"▁등이":1515,"▁프로그램":1516,"▁완":1517,"▁인구":1518,"▁설명":1519,"▁힘":1520,"▁이에":1521,"▁중국":1522,"▁화학":1523,"스는":1524,"시키":1525,"요한":1526,"화국":1527,"▁위치":1528,"▁결과":1529,"으나,":1530,"▁충":1531,"해서":1532,"▁대부분":1533,"▁기술":1534,"▁구성":1535,"▁발표":1536,"▁성립":1537,"▁성질":1538,"하기도":1539,"▁예를":1540,"▁독일":1541,"▁디":1542,"스트":1543,"▁발견":1544,"스의":1545,"▁서로":1546,"▁어떤":1547,"▁높":1548,"▁순":1549,"▁앙":1550,"▁측":1551,"가지":1552,"개의":1553,"다.":1554,"▁수도":1555,"▁한편":1556,"▁195":1557,"▁위한":1558,"하여,":1559,"▁곱":1560,"▁카":1561,"▁이상":1562,"▁PC":1563,"▁증명":1564,"▁규":1565,"▁엔":1566,"▁토":1567,"이는":1568,"졌다.\r\n":1569,"▁하지만":1570,"▁활동":1571,"▁뒤":1572,"▁브":1573,"체의":1574,"▁있으며,":1575,"▁다양":1576,"▁개념":1577,"▁알려":1578,"▁매우":1579,"다가":1580,"로는":1581,"스템":1582,"위를":1583,"▁기준":1584,"▁의미":1585,"▁영향":1586,"▁참여":1587,"▁기본":1588,"▁자신":1589,"▁시대":1590,"▁실수":1591,"▁선형":1592,"▁권":1593,"▁있었":1594,"▁지지":1595,"▁인터":1596,"▁비판":1597,"▁금":1598,"라이나":1599,"장을":1600,"▁표준":1601,"▁처음":1602,"므로":1603,"▁시간":1604,"▁경제":1605,"▁물리학":1606,"▁여기서":1607,"▁는":1608,"▁살":1609,"로부터":1610,"리가":1611,"크라이나":1612,"하며":1613,"▁일부":1614,"▁않는":1615,"▁생각":1616,"▁우크라이나":1617,"▁삼각":1618,"▁탄":1619,"이지":1620,"이터":1621,"▁시스템":1622,"▁만들어":1623,"▁용":1624,"▁철":1625,"▁formula_6":1626,"▁과정":1627,"▁복소":1628,"▁새로":1629,"▁러":1630,"▁밝":1631,"▁플":1632,"이라":1633,"에서의":1634,"▁부분":1635,"▁5월":1636,"▁특히":1637,"▁따르":1638,"▁선택":1639,"사전":1640,"▁이것":1641,"▁아닌":1642,"▁극":1643,"▁버":1644,"▁올":1645,"▁제1":1646,"▁제공":1647,"▁뜻":1648,"▁치":1649,"공화국":1650,"도로":1651,"일러":1652,"▁192":1653,"▁193":1654,"▁하였다.\r\n":1655,"▁승":1656,"도록":1657,"서는":1658,"위원":1659,"회의":1660,"▁구글":1661,"▁상태":1662,"▁I":1663,"났다.\r\n":1664,"이었":1665,"▁사실":1666,"▁만족":1667,"▁변화":1668,"▁없는":1669,"▁노무현은":1670,"▁뉴":1671,"▁돌":1672,"▁타":1673,"▁했":1674,"계를":1675,"어를":1676,"▁formula_5":1677,"▁조사":1678,"▁서비":1679,"▁원소":1680,"▁나타내":1681,"▁행렬":1682,"▁언론":1683,"▁조선일보":1684,"▁길":1685,"▁와":1686,"대로":1687,"에서도":1688,"▁연산":1689,"▁된":1690,"▁맞":1691,"▁채":1692,"식을":1693,"▁가진":1694,"▁문화":1695,"▁가지고":1696,"▁러시아":1697,"▁심":1698,"어나":1699,"▁계속":1700,"▁또한,":1701,"▁최초":1702,"▁초기":1703,"▁책":1704,"▁클":1705,"나라":1706,"는데,":1707,"레이":1708,"리아":1709,"▁17":1710,"▁대표":1711,"▁지원":1712,"▁비롯":1713,"▁대한민국의":1714,"▁폴링은":1715,"▁메":1716,"▁밀":1717,"▁천":1718,"▁formula_7":1719,"▁3월":1720,"▁결합":1721,"▁많이":1722,"▁인터넷":1723,"▁D":1724,"▁응":1725,"▁줄":1726,"▁투":1727,"간의":1728,"리에":1729,"▁있어":1730,"▁16":1731,"▁위의":1732,"▁원자":1733,"▁질량":1734,"▁S":1735,"▁네":1736,"▁은":1737,"기가":1738,"▁평가":1739,"▁베":1740,"▁업":1741,"이었다.\r\n":1742,"정부":1743,"▁기록":1744,"▁속도":1745,"▁야":1746,"▁혼":1747,"력을":1748,"인민":1749,"▁이어":1750,"으로는":1751,"▁191":1752,"▁자료":1753,"▁유리":1754,"▁인해":1755,"▁마이":1756,"▁새로운":1757,"▁환":1758,"▁전쟁":1759,"하였고,":1760,"▁아래":1761,"▁조건":1762,"▁만들":1763,"▁선거":1764,"▁결정":1765,"베르트":1766,".1":1767,"▁드":1768,"▁첫":1769,"▁협":1770,"자.\r\n":1771,"학은":1772,"에서,":1773,"▁주로":1774,"▁작품":1775,"▁검찰":1776,"▁좌":1777,"국가":1778,"사인":1779,"스를":1780,"자로":1781,"▁15":1782,"▁전체":1783,"▁자기":1784,"▁각각":1785,"▁체제":1786,"▁산업":1787,"▁앙카":1788,"▁친":1789,"▁헌":1790,"▁제2":1791,"▁국제":1792,"▁개인":1793,"▁상대":1794,"▁4월":1795,"▁12월":1796,"▁필요":1797,"▁K":1798,"▁막":1799,"▁접":1800,"▁되어":1801,"되지":1802,"어는":1803,"정한":1804,"으로써":1805,"▁기능":1806,"▁내용":1807,"▁독립":1808,"백과사전":1809,"▁데이터":1810,"▁M":1811,"▁몇":1812,"▁백":1813,"▁범":1814,"른다.\r\n":1815,"이고":1816,"▁1월":1817,"▁동안":1818,"OS":1819,"기에":1820,"하며,":1821,"▁사망":1822,"▁다루":1823,"▁분석":1824,"▁2009년":1825,"▁영향을":1826,"▁급":1827,"▁농":1828,"▁둘":1829,"▁앞":1830,"는데":1831,"들과":1832,"사가":1833,"일에":1834,"▁음악":1835,"▁글":1836,"▁담":1837,"▁볼":1838,"▁잘":1839,"▁패":1840,"력이":1841,"수로":1842,"일,":1843,"크로":1844,"했고,":1845,"으로,":1846,"▁정책":1847,"▁기업":1848,"▁중앙":1849,"▁미분":1850,"▁않는다.\r\n":1851,"▁도입":1852,"▁누":1853,"▁터":1854,"기는":1855,"도의":1856,"임을":1857,"▁하이":1858,"▁통계":1859,"▁작용":1860,"▁직접":1861,"▁번째":1862,"▁아니라":1863,"▁브라":1864,"▁A":1865,"▁맥":1866,"▁테":1867,"트로":1868,"▁평균":1869,"▁페":1870,"식은":1871,"자들은":1872,"크는":1873,"▁다항":1874,"▁등장":1875,"▁중요한":1876,"▁물질":1877,"▁무한":1878,"▁역시":1879,"▁10월":1880,"er":1881,"▁걸":1882,"자인":1883,"조합":1884,"▁지방":1885,"▁원주":1886,"▁오일러":1887,"▁일본어":1888,"▁회전":1889,"▁확장":1890,"▁일반적으로":1891,"▁8월":1892,"▁라이":1893,"▁이루어":1894,"▁민주당":1895,"▁F":1896,"▁준":1897,"도는":1898,"라스":1899,"▁가운":1900,"▁않은":1901,"▁결국":1902,"▁설립":1903,"▁받았다.\r\n":1904,"▁다양한":1905,"▁슈":1906,"▁정권":1907,"▁없다.\r\n":1908,"▁추가":1909,"▁크게":1910,"▁왕":1911,"학을":1912,"▁위상":1913,"▁모형":1914,"▁진행":1915,"민주주의":1916,"▁11월":1917,"▁원주율":1918,"▁가운데":1919,"▁히":1920,"업을":1921,"▁발생":1922,"▁실제":1923,"▁동치":1924,"▁되었":1925,"▁언어":1926,"▁존재한다.\r\n":1927,"기로":1928,"인다.\r\n":1929,"자들이":1930,"함수":1931,"힐베르트":1932,"▁대수":1933,"000":1934,"▁관한":1935,"▁논란":1936,"▁임의":1937,"▁양자역학":1938,"▁성립한다.\r\n":1939,"▁절":1940,"▁핵":1941,"도가":1942,"성이":1943,"▁가정":1944,"▁하고":1945,"▁노벨":1946,"▁보수":1947,"▁연결":1948,"▁2007년":1949,"▁파일":1950,"▁차지":1951,"▁증가":1952,"▁코사인":1953,"인민공화국":1954,"▁헌법":1955,"▁들":1956,"▁병":1957,"▁윤":1958,"디오":1959,"라이":1960,"으로부터":1961,"▁고전":1962,"▁도시":1963,"▁단위":1964,"▁받아":1965,"▁경우,":1966,"▁운동량":1967,"▁되는":1968,"▁때문이다.\r\n":1969,"▁전자기":1970,"▁끝":1971,"▁빛":1972,"▁켓":1973,"이며":1974,"이자":1975,"자와":1976,"학에서":1977,"▁이전":1978,"으로서":1979,"▁서버":1980,"▁상호":1981,"▁30":1982,"▁노무현의":1983,"▁적용":1984,"▁노동조합":1985,"▁편집":1986,"▁커널":1987,"▁B":1988,"▁넘":1989,"▁쌍":1990,"하려":1991,"해야":1992,"▁이때":1993,"▁있다는":1994,"▁대하여":1995,"▁기계":1996,"▁전국":1997,"▁유명":1998,"▁발달":1999,"▁해석":2000,"▁역할":2001,"▁파동":2002,"▁프로젝":2003,"▁학생":2004,"▁서비스":2005,"▁앙카라":2006,"▁T":2007,"▁갈":2008,"다면":2009,"래프트":2010,"므로,":2011,"시에":2012,"왔다.\r\n":2013,"전히":2014,"크래프트":2015,"학생":2016,"화를":2017,"▁이유":2018,"▁있고,":2019,"▁있다고":2020,"▁대상":2021,"▁기반":2022,"▁기원":2023,"▁중화":2024,"▁인정":2025,"▁부른다.\r\n":2026,"▁만약":2027,"▁않고":2028,"▁함수의":2029,"▁프랙":2030,"▁애국가":2031,"NU":2032,"▁,":2033,"▁찾":2034,"▁황":2035,"니아":2036,"제를":2037,"▁대학교":2038,"▁수립":2039,"▁정리":2040,"하였고":2041,"▁상당":2042,"▁상수":2043,"▁성공":2044,"▁거리":2045,"▁추진":2046,"▁형성":2047,"▁6월":2048,"▁프로젝트":2049,"▁“":2050,"▁을":2051,"▁효":2052,"대의":2053,"식으로":2054,"이기":2055,"작용":2056,"장이":2057,"타크래프트":2058,"▁이해":2059,"▁대응":2060,"▁한반":2061,"▁아이":2062,"▁해당":2063,"▁단일":2064,"운동량":2065,"▁중심으로":2066,"시키는":2067,"▁응용":2068,"▁프랙탈":2069,"DA":2070,"▁귀":2071,"▁별":2072,"▁졸":2073,"▁쿼":2074,"기의":2075,"냈다.\r\n":2076,"방정식":2077,"사의":2078,"선을":2079,"스웰":2080,"이가":2081,"지를":2082,"▁수상":2083,"▁지구":2084,"▁중력":2085,"▁제국":2086,"▁보통":2087,"▁분류":2088,"▁통일":2089,"▁사용자":2090,"▁불교":2091,"▁로봇":2092,"▁미국의":2093,"▁사이에":2094,"▁7월":2095,"▁높은":2096,"▁곱셈":2097,"▁마이크로":2098,"▁벌":2099,"▁웹":2100,"▁헤":2101,"가능":2102,"과의":2103,"권을":2104,"드는":2105,"들에게":2106,"디어":2107,"점을":2108,"차원":2109,"▁대신":2110,"▁대전":2111,"▁개의":2112,"▁물체":2113,"▁생성":2114,"▁조선민주주의":2115,"▁들어,":2116,"▁GNU":2117,"트로피":2118,"▁날":2119,"▁탈":2120,"▁퍼":2121,"▁폭":2122,"▁힐베르트":2123,"물을":2124,"시간":2125,"▁있으며":2126,"▁대선":2127,"▁유지":2128,"▁조직":2129,"▁물체의":2130,"▁반대":2131,"▁각운동량":2132,"▁방정식은":2133,"▁방정식을":2134,"▁시작했다.\r\n":2135,"▁종류":2136,"▁사이의":2137,"▁민족":2138,"▁성질을":2139,"▁엔트로피":2140,"▁비롯한":2141,"▁임의의":2142,"▁-":2143,"▁<":2144,"▁N":2145,"▁를":2146,"낸다.\r\n":2147,"문을":2148,"식의":2149,"원을":2150,"조선":2151,"통신":2152,"▁이와":2153,"▁하여":2154,"▁등으로":2155,"▁때,":2156,"▁소수":2157,"▁영국":2158,"▁작은":2159,"▁거의":2160,"▁남북":2161,"되었고,":2162,"▁얻는다.\r\n":2163,"▁9월":2164,"▁갖는":2165,"▁최초의":2166,"▁맥스웰":2167,"▁L":2168,"▁놀":2169,"▁늘":2170,"▁레":2171,"많은":2172,"였던":2173,"우스":2174,"이를":2175,"이고,":2176,"자,":2177,"하거나":2178,"▁이다.\r\n":2179,"▁100":2180,"▁대중":2181,"▁수많은":2182,"▁그것":2183,"▁방송":2184,"▁여론":2185,"▁관측":2186,"▁2003년":2187,"▁최근":2188,"▁말한다.\r\n":2189,"▁대통령의":2190,"▁대해서":2191,"▁역사":2192,"민주당":2193,"▁PDA":2194,"▁간단":2195,"▁삼각형":2196,"▁이것은":2197,"▁널":2198,"▁빌":2199,"▁손":2200,"기와":2201,"됐다.\r\n":2202,"만을":2203,"명을":2204,"미노":2205,"어의":2206,"정을":2207,"진다.\r\n":2208,"체로":2209,"▁대하여,":2210,"▁수는":2211,"▁그가":2212,"▁주어진":2213,"▁고대":2214,"▁해결":2215,"▁단순":2216,"▁받았":2217,"▁일반적인":2218,"▁대부분의":2219,"▁기준으로":2220,"▁자신의":2221,"▁졸업":2222,"▁루":2223,"▁면":2224,"▁밖":2225,"▁블":2226,"▁악":2227,"▁혹":2228,"▁백과사전":2229,"명이":2230,"스,":2231,"식이":2232,"장의":2233,"학,":2234,"했다고":2235,"▁이르":2236,"▁수준":2237,"▁그렇":2238,"▁정확":2239,"▁formula_8":2240,"▁유닛":2241,"▁보도":2242,"▁방문":2243,"▁방향":2244,"▁관심":2245,"▁실패":2246,"▁고려":2247,"▁2008년":2248,"▁무리":2249,"▁변환":2250,"▁열린":2251,"▁건설":2252,"▁태어":2253,"▁군사":2254,"▁하이젠":2255,"▁널리":2256,"en":2257,"▁E":2258,"▁빠":2259,"되면서":2260,"들에":2261,"론적":2262,"법을":2263,"부를":2264,"이트":2265,"총련":2266,"타인":2267,"하던":2268,"학자":2269,"▁정몽":2270,"▁제외":2271,"▁관리":2272,"▁2002년":2273,"▁현상":2274,"▁프랑":2275,"▁최고":2276,"▁측정":2277,"▁하이젠베르":2278,"..":2279,"km":2280,"▁쉽":2281,"▁잡":2282,"▁홍":2283,"계의":2284,"나는":2285,"명의":2286,"소를":2287,"어가":2288,"음을":2289,"학과":2290,"했던":2291,"▁이런":2292,"▁그래":2293,"▁formula_9":2294,"▁공개":2295,"▁등에":2296,"▁인간":2297,"▁나라":2298,"▁부산":2299,"▁소련":2300,"▁도스":2301,"▁공간의":2302,"▁출신":2303,"▁외교":2304,"▁2010년":2305,"▁사건,":2306,"▁좌표":2307,"▁색":2308,"▁좋":2309,"가와":2310,"대학교":2311,"리드":2312,"스크":2313,"장에":2314,"장으로":2315,"키는":2316,"하자":2317,"▁이미":2318,"▁있게":2319,"▁기초":2320,"▁2월":2321,"▁하였":2322,"▁보존":2323,"▁의원":2324,"▁작업":2325,"▁설치":2326,"▁특별":2327,"▁나타낼":2328,"▁출판":2329,"▁정부는":2330,"▁요구":2331,"▁검색":2332,"▁하나의":2333,"▁돌아":2334,"▁역할을":2335,"미노산":2336,"▁혹은":2337,"in":2338,"▁·":2339,"▁암":2340,"▁윈":2341,"▁침":2342,"▁캠":2343,"계가":2344,"계에":2345,"한다는":2346,"▁있던":2347,"▁14":2348,"▁하자.\r\n":2349,"▁자동":2350,"▁보여":2351,"▁구간":2352,"▁발언":2353,"▁통신":2354,"▁동시에":2355,"▁반응":2356,"▁예술":2357,"▁대통령이":2358,"▁재단":2359,"▁교육":2360,"▁에너지는":2361,"▁이루어진":2362,"▁이름을":2363,"▁알려져":2364,"▁복소수":2365,"▁나타내는":2366,"▁곳":2367,"▁축":2368,"▁폐":2369,"▁풀":2370,"결합":2371,"노동":2372,"시켜":2373,"원의":2374,"적이":2375,"집합":2376,"했다는":2377,"▁이룬":2378,"▁수가":2379,"▁사상":2380,"▁23":2381,"▁전개":2382,"▁주요":2383,"▁사용하여":2384,"▁영화":2385,"▁받은":2386,"▁문제를":2387,"▁라플":2388,"▁허가":2389,"▁처음으로":2390,"▁밝혔":2391,"▁플랑":2392,"▁있어서":2393,"▁H":2394,"▁느":2395,"▁될":2396,"▁떨":2397,"▁케":2398,"▁키":2399,"▁휴":2400,"라인":2401,"사,":2402,"사로":2403,"슈타인":2404,"어로":2405,"있는":2406,"지고":2407,"처럼":2408,"치는":2409,"카와":2410,"했으며,":2411,"호를":2412,"▁13":2413,"▁제곱":2414,"▁제시":2415,"▁유사":2416,"▁유일":2417,"▁방언":2418,"▁부르":2419,"▁따른":2420,"▁스칼":2421,"▁방정식의":2422,"▁확인":2423,"▁달러":2424,"▁정몽준":2425,"\"라고":2426,"',":2427,"0%":2428,"▁「":2429,"▁놓":2430,"▁엄":2431,"▁죽":2432,"다면,":2433,"▁이들":2434,"▁1년":2435,"▁대칭":2436,"▁가리":2437,"▁일으":2438,"▁하며,":2439,"▁지금":2440,"▁구속":2441,"▁비디오":2442,"▁만든":2443,"▁사용하는":2444,"▁않았":2445,"▁않았다.\r\n":2446,"▁2004년":2447,"▁오늘":2448,"▁생산":2449,"▁단체":2450,"▁formula_13":2451,"▁특정":2452,"▁당선":2453,"▁일본의":2454,"▁출범":2455,"▁더욱":2456,"▁박정":2457,"▁환경":2458,"▁윤치":2459,"▁R":2460,"▁견":2461,"▁깊":2462,"▁망":2463,"▁몰":2464,"▁봉":2465,"▁뿐":2466,"▁혐":2467,"계에서":2468,"대에":2469,"대한":2470,"도,":2471,"림픽":2472,"마스":2473,"부의":2474,"이어":2475,"인이":2476,"지로":2477,"회를":2478,"▁이로":2479,"▁있을":2480,"▁1,":2481,"▁수행":2482,"▁사업":2483,"▁가속":2484,"▁기저":2485,"▁25":2486,"▁공리":2487,"▁지배":2488,"▁자주":2489,"▁등과":2490,"▁비교":2491,"▁비슷":2492,"▁의한":2493,"▁분포":2494,"▁표시":2495,"▁선언":2496,"▁두고":2497,"▁운동을":2498,"▁한국의":2499,"▁나타낸다.\r\n":2500,"▁1990년대":2501,"▁항상":2502,"▁법칙을":2503,"▁표기법":2504,"▁윈도":2505,"ic":2506,"▁쓴":2507,"▁움":2508,"▁읽":2509,"갔다.\r\n":2510,"과는":2511,"대학":2512,"렸다.\r\n":2513,"성,":2514,"스로":2515,"인슈타인":2516,"찬가지":2517,"학적":2518,"▁대학":2519,"▁사인":2520,"▁정상":2521,"▁한총련":2522,"▁일어":2523,"▁것에":2524,"▁유한":2525,"▁아미노산":2526,"▁경찰":2527,"▁국회":2528,"▁다음이":2529,"▁불리":2530,"▁불가능":2531,"▁마찬가지":2532,"▁특징":2533,"▁집합은":2534,"▁행동":2535,"▁학문":2536,"▁임시":2537,"▁광고":2538,"▁북한":2539,"▁조선민주주의인민공화국":2540,"▁쉽게":2541,"▁박정희":2542,"▁움직":2543,"'로":2544,"▁낙":2545,"▁돈":2546,"▁송":2547,"▁압":2548,"▁퇴":2549,"▁푸":2550,"되고,":2551,"등학교":2552,"리,":2553,"리의":2554,"사와":2555,"사에서":2556,"서관":2557,"연합":2558,"체를":2559,"트를":2560,"함으로써":2561,"해를":2562,"▁전통":2563,"▁일어나":2564,"▁공동":2565,"▁지적":2566,"하였으나":2567,"▁개최":2568,"▁사용된다.\r\n":2569,"▁변경":2570,"▁스타크래프트":2571,"▁대한민국은":2572,"▁신문":2573,"▁교토":2574,"▁적분":2575,"▁외국":2576,"▁이용하여":2577,"▁구조를":2578,"▁오늘날":2579,"BM":2580,"DOS":2581,"PL":2582,"▁=":2583,"▁넓":2584,"▁년":2585,"▁르":2586,"▁머":2587,"▁붙":2588,"▁월":2589,"▁흔":2590,"스와":2591,"어,":2592,"역학의":2593,"이의":2594,"치가":2595,"한다고":2596,"▁이렇":2597,"▁이야":2598,"▁있도록":2599,"▁수소":2600,"▁다르":2601,"▁29":2602,"▁190":2603,"▁전하":2604,"▁일제":2605,"▁제기":2606,"▁유도":2607,"▁유럽":2608,"▁도킨":2609,"▁세력":2610,"▁계의":2611,"▁거쳐":2612,"▁각종":2613,"▁우주":2614,"▁종족":2615,"▁복잡":2616,"▁확률":2617,"▁함수는":2618,"▁쓰인다.\r\n":2619,"▁사람은":2620,"▁사람들이":2621,"▁수학적":2622,"▁배포":2623,"▁근대":2624,"▁관련된":2625,"▁완전히":2626,"▁뉴턴":2627,"▁상호작용":2628,"▁찾아":2629,"▁이룬다.\r\n":2630,"▁라플라스":2631,"▁윤치호":2632,"▁혐의":2633,"[[":2634,"an":2635,"on":2636,"▁격":2637,"▁답":2638,"▁찬":2639,"▁칼":2640,"만이":2641,"서를":2642,"선이":2643,"원이":2644,"장은":2645,"▁이동":2646,"▁1일":2647,"▁그런":2648,"▁한나라":2649,"▁22":2650,"▁전문":2651,"▁전해":2652,"▁일을":2653,"▁지속":2654,"하였으며,":2655,"▁주변":2656,"▁나오":2657,"▁후에":2658,"▁계획":2659,"▁불리는":2660,"▁2000년":2661,"▁2006년":2662,"▁반복":2663,"▁많다.\r\n":2664,"▁초월":2665,"▁정의할":2666,"▁서울의":2667,"▁김영":2668,"▁합성":2669,"▁포함한":2670,"▁개념을":2671,"▁대표적인":2672,"▁난":2673,"▁맡":2674,"▁잠":2675,"▁향":2676,"기,":2677,"나가":2678,"되며,":2679,"들로":2680,"떠한":2681,"라가":2682,"르크":2683,"번째":2684,"선,":2685,"스가":2686,"아시아":2687,"이,":2688,"지에":2689,"체가":2690,"치를":2691,"했고":2692,"▁이주":2693,"▁다만":2694,"▁일정":2695,"▁주기":2696,"▁소설":2697,"▁물은":2698,"▁있는데,":2699,"▁영어":2700,"▁생활":2701,"▁formula_10":2702,"▁20세기":2703,"▁평화":2704,"▁입자":2705,"▁종교":2706,"▁필요한":2707,"▁관계를":2708,"▁따라서,":2709,"▁취임":2710,"▁위키백과의":2711,"다\"라고":2712,"▁정보를":2713,"▁지지율":2714,"▁과정에서":2715,"▁따르면":2716,"▁IBM":2717,"▁기능을":2718,"▁기원전":2719,"▁한반도":2720,"▁스칼라":2721,"'을":2722,"at":2723,"ch":2724,"is":2725,"▁낮":2726,"국민":2727,"난다.\r\n":2728,"동안":2729,"머니":2730,"문학":2731,"산,":2732,"상의":2733,"성은":2734,"성의":2735,"연차":2736,"이기도":2737,"인은":2738,"있다.\r\n":2739,"장에서":2740,"켰다.\r\n":2741,"▁수집":2742,"▁가족":2743,"▁기호":2744,"▁제품":2745,"▁구별":2746,"▁문학":2747,"▁부정":2748,"▁실시":2749,"▁실행":2750,"▁내적":2751,"▁최소":2752,"▁바탕":2753,"▁강한":2754,"▁체계":2755,"▁2011년":2756,"▁정부의":2757,"▁형태로":2758,"▁가능한":2759,"이었던":2760,"▁최초로":2761,"▁유리수":2762,"▁제2차":2763,"▁효과":2764,",000":2765,"-DOS":2766,"al":2767,"▁U":2768,"▁석":2769,"경제":2770,"관계":2771,"그룹":2772,"라도":2773,"론의":2774,"사는":2775,"석헌":2776,"시킨":2777,"일에는":2778,"전을":2779,"전자":2780,"지막":2781,"▁이외":2782,"▁이들은":2783,"▁수직":2784,"▁한글":2785,"▁하드":2786,"▁제안":2787,"▁유카와":2788,"▁구분":2789,"▁경쟁":2790,"▁비해":2791,"▁연속":2792,"▁국내":2793,"▁상황":2794,"▁원래":2795,"▁불구":2796,"▁결혼":2797,"▁어떠한":2798,"▁대해서는":2799,"▁논문":2800,"▁수학자":2801,"▁식을":2802,"▁형태의":2803,"▁박연차":2804,"▁값을":2805,"▁따르면,":2806,"위원회":2807,"▁다루는":2808,"▁터키":2809,"▁라이선":2810,"▁쌍곡":2811,"▁쿼크":2812,"▁하이젠베르크는":2813,"0만":2814,"▁덧":2815,"▁멸":2816,"▁칸":2817,"▁텍":2818,"값을":2819,"격을":2820,"대중":2821,"론을":2822,"마다":2823,"물리":2824,"뮤니":2825,"버지":2826,"사건":2827,"사에":2828,"속도":2829,"수에":2830,"위는":2831,"클리드":2832,"트워":2833,"하면,":2834,"화가":2835,"회담":2836,"▁수정":2837,"▁기하":2838,"▁19세기":2839,"▁시도":2840,"▁중요":2841,"▁모델":2842,"▁문자":2843,"▁내부":2844,"▁작가":2845,"▁어느":2846,"까지는":2847,"▁노무현이":2848,"▁마지막":2849,"▁설계":2850,"▁강력":2851,"▁1992년":2852,"▁2013년":2853,"▁에너지를":2854,"▁이용한":2855,"▁활용":2856,"▁방법을":2857,"▁이상의":2858,"▁규칙":2859,"▁금속":2860,"▁조선일보는":2861,"▁논란이":2862,"▁이렇게":2863,"BS":2864,"·1":2865,"▁니":2866,"▁떠":2867,"▁빅":2868,"▁염":2869,"▁트":2870,"▁홀":2871,"▁[[":2872,"국을":2873,"대를":2874,"되기":2875,"르트":2876,"리와":2877,"리자":2878,"린턴":2879,"법칙":2880,"성에":2881,"의를":2882,"자에":2883,"▁있기":2884,"▁정수":2885,"▁전기":2886,"▁전달":2887,"▁하면":2888,"▁자살":2889,"▁유기":2890,"▁유클리드":2891,"▁아인슈타인":2892,"▁인권":2893,"▁경영":2894,"▁모습":2895,"▁통합":2896,"▁사용한다.\r\n":2897,"▁계승":2898,"▁집단":2899,"▁영역":2900,"▁생물":2901,"▁변호":2902,"▁어려":2903,"▁어머니":2904,"▁바뀌":2905,"▁되고":2906,"▁입력":2907,"▁공간은":2908,"▁나타나":2909,"▁명칭":2910,"▁2014년":2911,"되었으며,":2912,"▁논쟁":2913,"▁약한":2914,"▁온라인":2915,"▁커뮤니":2916,"▁프로그램을":2917,"▁독일의":2918,"▁버전":2919,"▁클린턴":2920,"▁접근":2921,"▁담당":2922,"▁절대":2923,"▁멸망":2924,"▁커뮤니티":2925,"%,":2926,"▁m":2927,"▁곧":2928,"▁뇌":2929,"▁눈":2930,"▁앨":2931,"▁팔":2932,"▁흑":2933,"민족":2934,"방송":2935,"사회":2936,"어졌":2937,"원에":2938,"위로":2939,"으면":2940,"이란":2941,"자들의":2942,"점이":2943,"제가":2944,"제로":2945,"지의":2946,"커널":2947,"타민":2948,"▁이승":2949,"▁한강":2950,"▁기간":2951,"▁공유":2952,"▁하지":2953,"▁하고,":2954,"▁지나":2955,"▁등은":2956,"▁제작":2957,"▁유용":2958,"▁인사":2959,"▁의혹":2960,"▁여름":2961,"▁관찰":2962,"▁만드는":2963,"▁사용할":2964,"▁운행":2965,"▁양의":2966,"▁특수":2967,"▁진보":2968,"▁차례":2969,"▁정부가":2970,"▁때문에,":2971,"▁저작":2972,"▁처리":2973,"▁번역":2974,"▁애플":2975,"▁감마":2976,"▁충돌":2977,"▁한편,":2978,"▁알려진":2979,"▁올림픽":2980,"▁가진다.\r\n":2981,"▁DN":2982,"▁네트워":2983,"▁유명한":2984,"▁종류의":2985,"km2":2986,"▁밝혔다.\r\n":2987,"▁플랑크":2988,"▁한나라당":2989,"▁텍스트":2990,"'라고":2991,"]]":2992,"em":2993,"▁W":2994,"▁능":2995,"▁둔":2996,"▁묘":2997,"▁빼":2998,"공업":2999,"기업":3000,"단체":3001,"되기도":3002,"떻게":3003,"류:":3004,"명박":3005,"부는":3006,"분류:":3007,"비에":3008,"선거":3009,"스포":3010,"원,":3011,"원은":3012,"장과":3013,"중에":3014,"지역":3015,"특별":3016,"하지만":3017,"함을":3018,"회창":3019,"▁이명박":3020,"▁이회창":3021,"▁있고":3022,"▁수열":3023,"▁정규":3024,"▁가르":3025,"▁26":3026,"▁공업":3027,"▁시민":3028,"▁시절":3029,"▁중성":3030,"▁중에":3031,"▁것과":3032,"▁제목":3033,"▁제조":3034,"▁인물":3035,"▁인천":3036,"▁노래":3037,"▁보고":3038,"▁보손":3039,"▁구면":3040,"▁개혁":3041,"▁분자":3042,"▁때는":3043,"▁미술":3044,"▁불확":3045,"▁2001년":3046,"▁무엇":3047,"▁추상":3048,"▁알아":3049,"▁1998년":3050,"▁행정":3051,"▁화합":3052,"▁연구하는":3053,"▁간첩":3054,"▁문제가":3055,"▁1988년":3056,"▁189":3057,"▁값은":3058,"▁판단":3059,"다\"고":3060,"▁청와":3061,"▁결과를":3062,"▁탄핵":3063,"▁구글은":3064,"▁작용하는":3065,"▁페르":3066,"▁핵심":3067,"▁간단히":3068,"▁자동차":3069,"▁[[분류:":3070,"]]\r\n":3071,"\"이라고":3072,"'라는":3073,"et":3074,"▁겨":3075,"▁깨":3076,"▁너":3077,"▁혁":3078,"▁다.\r\n":3079,"▁베르":3080,"끌어":3081,"대,":3082,"력의":3083,"로그":3084,"론이":3085,"르는":3086,"선의":3087,"설을":3088,"소가":3089,"소에":3090,"연구":3091,"영은":3092,"이드":3093,"인을":3094,"인의":3095,"인으로":3096,"지가":3097,"지게":3098,"쪽으로":3099,"탈피":3100,"함수의":3101,"▁사법":3102,"▁한일":3103,"▁가입":3104,"▁기여":3105,"▁기존":3106,"▁공학":3107,"▁위에":3108,"▁자리":3109,"▁아시아":3110,"▁주도":3111,"▁보급":3112,"▁비타민":3113,"▁대한제":3114,"▁발행":3115,"▁분향":3116,"▁선출":3117,"▁영토":3118,"▁formula_11":3119,"▁formula_14":3120,"▁formula_1의":3121,"▁대통령은":3122,"▁운동에":3123,"▁출마":3124,"▁1993년":3125,"▁교통":3126,"▁2016년":3127,"▁함수를":3128,"▁사람이":3129,"▁이론을":3130,"▁건물":3131,"▁광주":3132,"▁자연수의":3133,"▁양자역학의":3134,"▁후보가":3135,"▁목표":3136,"▁못했다.\r\n":3137,"▁주장했다.\r\n":3138,"▁본격":3139,"▁판매":3140,"▁GPL":3141,"▁규정":3142,"▁토마스":3143,"▁활동을":3144,"▁밝혀":3145,"▁극한":3146,"▁사실을":3147,"▁접속":3148,"▁몇몇":3149,"▁모형은":3150,"▁이유로":3151,"▁중화민국":3152,"▁곱셈적":3153,"▁관심을":3154,"▁윈도우":3155,"▁김영삼":3156,"▁하드웨어":3157,"°C":3158,"▁x":3159,"▁먼":3160,"▁썼":3161,"▁훈":3162,"기에는":3163,"대수":3164,"딩거":3165,"론,":3166,"뢰딩거":3167,"리고":3168,"미디어":3169,"백질":3170,"스터":3171,"시가":3172,"식에":3173,"원으로":3174,"자이다.\r\n":3175,"적을":3176,"전하":3177,"정보":3178,"정책":3179,"천년":3180,"클레":3181,"하다는":3182,"했으나":3183,"형의":3184,"▁1인":3185,"▁수의":3186,"▁그해":3187,"▁2,":3188,"▁2차":3189,"▁전환":3190,"▁시각":3191,"▁제타":3192,"▁나온":3193,"▁연방":3194,"▁국무":3195,"▁통한":3196,"▁동일":3197,"▁단백질":3198,"▁없다는":3199,"▁스핀":3200,"▁과거":3201,"▁최대":3202,"▁추측":3203,"▁진영":3204,"▁말했다.\r\n":3205,"▁명예":3206,"▁집합의":3207,"▁외에도":3208,"▁로그":3209,"▁학교":3210,"▁그리스":3211,"▁김대중":3212,"▁벡터의":3213,"▁즉,\r\n":3214,"▁감소":3215,"▁목록":3216,"▁정치적":3217,"▁문서를":3218,"▁인구는":3219,"▁PC통신":3220,"▁시간에":3221,"▁만족시키는":3222,"▁개인용":3223,"▁슈뢰딩거":3224,"▁밖에":3225,"▁떨어":3226,"▁비슷한":3227,"▁마찬가지로":3228,"▁칸토":3229,"▁이승만":3230,"%를":3231,"-1":3232,"▁땅":3233,"▁울":3234,"▁왔다.\r\n":3235,"관을":3236,"구를":3237,"드를":3238,"명,":3239,"명으로":3240,"성과":3241,"수와":3242,"시,":3243,"와의":3244,"익태":3245,"적이다.\r\n":3246,"점으로":3247,"주는":3248,"트의":3249,"하다고":3250,"한국":3251,"화된":3252,"▁있다.":3253,"▁정당":3254,"▁정도":3255,"▁정지":3256,"▁한미":3257,"▁가까":3258,"▁21":3259,"▁24":3260,"▁27":3261,"▁전류":3262,"▁일종":3263,"▁일정한":3264,"▁공산":3265,"▁지하":3266,"▁유희":3267,"▁인공":3268,"▁인수":3269,"▁경험":3270,"▁의견":3271,"▁의존":3272,"▁국정":3273,"▁국회의":3274,"▁부족":3275,"▁원리":3276,"▁않다.\r\n":3277,"▁도쿄":3278,"▁함석헌":3279,"▁집중":3280,"▁formula_15":3281,"▁formula_19":3282,"▁작성":3283,"▁과학의":3284,"▁경우가":3285,"▁파괴":3286,"▁더불":3287,"▁집합이다.\r\n":3288,"되었고":3289,"▁존재하지":3290,"▁들어서":3291,"▁이론은":3292,"▁건국":3293,"▁1980년":3294,"▁리만":3295,"▁아니다.\r\n":3296,"▁못하고":3297,"▁1945년":3298,"▁관계가":3299,"▁힘을":3300,"▁자신이":3301,"▁뜻한다.\r\n":3302,"▁드러":3303,"▁걸쳐":3304,"▁갈등":3305,"▁블리자":3306,"▁태어났다.\r\n":3307,"▁가리키는":3308,"▁도킨스는":3309,"▁바탕으로":3310,"'에":3311,"'이라는":3312,".0":3313,".2":3314,"0여":3315,"el":3316,"▁/":3317,"▁괴":3318,"▁긴":3319,"▁멀":3320,"▁밑":3321,"▁쓸":3322,"▁옥":3323,"▁옮":3324,"▁왔":3325,"▁워":3326,"▁육":3327,"▁잃":3328,"▁홈":3329,"같은":3330,"과학":3331,"관이":3332,"도에":3333,"드의":3334,"롭게":3335,"모의":3336,"사업":3337,"선에":3338,"세를":3339,"소의":3340,"시는":3341,"시마":3342,"신문":3343,"와는":3344,"움을":3345,"웠다.\r\n":3346,"인지":3347,"형이":3348,"화학":3349,"활동":3350,"회에서":3351,"▁있지만,":3352,"▁대북":3353,"▁수록":3354,"▁사진":3355,"▁기념":3356,"▁기소":3357,"▁기온":3358,"▁일차":3359,"▁공화":3360,"▁등에서":3361,"▁중간":3362,"▁아쿠":3363,"▁인도":3364,"▁보다":3365,"▁비율":3366,"▁연합":3367,"▁관성":3368,"▁분리":3369,"▁때까지":3370,"▁소속":3371,"▁소비에":3372,"▁고유":3373,"▁3.1":3374,"적으로는":3375,"▁불러":3376,"▁오른":3377,"▁반면":3378,"▁따라,":3379,"▁formula_12":3380,"▁formula_16":3381,"▁작곡":3382,"▁특정한":3383,"▁받고":3384,"▁입학":3385,"▁나타났다.\r\n":3386,"▁출시":3387,"▁1990년":3388,"▁1999년":3389,"▁1995년":3390,"▁정의는":3391,"▁연구를":3392,"4년에":3393,"▁점차":3394,"▁의해서":3395,"▁새천년":3396,"▁저항":3397,"▁리눅":3398,"▁여기에":3399,"▁취급":3400,"▁형태를":3401,"▁실험을":3402,"▁이름이":3403,"▁국민의":3404,"▁충분":3405,"▁엔탈피":3406,"▁의미한다.\r\n":3407,"▁과정을":3408,"▁치러":3409,"▁뉴욕":3410,"▁히라가":3411,"▁실제로":3412,"▁빛의":3413,"▁상당히":3414,"▁마이크로커널":3415,"▁복잡한":3416,"▁청와대":3417,"▁더불어":3418,"▁소비에트":3419,"▁새천년민주당":3420,"\"의":3421,"%로":3422,".7":3423,"2P":3424,"st":3425,"▁O":3426,"▁X":3427,"▁겪":3428,"▁곡":3429,"▁꼽":3430,"▁끼":3431,"▁류":3432,"▁믿":3433,"▁빈":3434,"▁섬":3435,"▁풍":3436,"▁OS":3437,"가는":3438,"감을":3439,"당이":3440,"라며":3441,"량의":3442,"력과":3443,"리포":3444,"리클레":3445,"명한":3446,"법에":3447,"분석":3448,"소는":3449,"소프트":3450,"스케":3451,"시켰다.\r\n":3452,"어도":3453,"적이고":3454,"정상":3455,"정치":3456,"지기":3457,"지지":3458,"지털":3459,"지면서":3460,"차례":3461,"체는":3462,"치로":3463,"트는":3464,"프리":3465,"하도록":3466,"해,":3467,"▁이차":3468,"▁정주":3469,"하는데":3470,"▁전파":3471,"▁위하여":3472,"▁지도":3473,"▁제3":3474,"▁아르":3475,"▁아직":3476,"▁노력":3477,"▁보이는":3478,"▁방응":3479,"▁조지":3480,"▁조합":3481,"▁조사를":3482,"▁나서":3483,"▁연립":3484,"▁관점":3485,"▁소립":3486,"▁미디어":3487,"▁성장":3488,"▁영국의":3489,"▁내보":3490,"▁현상을":3491,"▁생겨":3492,"▁formula_1는":3493,"▁어떻게":3494,"▁500":3495,"▁최종":3496,"▁받게":3497,"▁바람":3498,"▁바로":3499,"▁경우도":3500,"▁평면":3501,"▁1991년":3502,"▁위해서":3503,"▁2015년":3504,"▁프로토":3505,"▁P2P":3506,"▁로마":3507,"▁법률":3508,"▁그러나,":3509,"▁이용할":3510,"2년에":3511,"▁안익태":3512,"3년에":3513,"▁문제에":3514,"7년에":3515,"▁게이지":3516,"▁사이에서":3517,"▁저장":3518,"▁1987년":3519,"▁이루는":3520,"▁항등":3521,"▁태양":3522,"▁질문":3523,"▁1948년":3524,"▁CP":3525,"▁방법으로":3526,"▁값이":3527,"▁위키백과는":3528,"▁판결":3529,"로서의":3530,"▁설명할":3531,"▁디리클레":3532,"▁제공한다.\r\n":3533,"▁1919년":3534,"▁내용을":3535,"학생회":3536,"▁중화인민공화국":3537,"▁유일한":3538,"▁혐의로":3539,"▁네트워크":3540,"▁너무":3541,"'가":3542,"'를":3543,"'으로":3544,".3":3545,"▁n":3546,"▁~":3547,"▁골":3548,"▁록":3549,"▁얼":3550,"▁왼":3551,"▁징":3552,"▁콜":3553,"▁쿠":3554,"▁티":3555,"▁품":3556,"▁흐":3557,"▁흡":3558,"▁흥":3559,"▁라는":3560,"▁레이":3561,"구려":3562,"권의":3563,"기술":3564,"남준":3565,"니다.\r\n":3566,"당을":3567,"당한":3568,"들도":3569,"르게":3570,"린다.\r\n":3571,"미분":3572,"부에":3573,"분을":3574,"세대":3575,"수이다.\r\n":3576,"스키":3577,"스핀":3578,"아가":3579,"없이":3580,"으므로":3581,"이므로":3582,"인,":3583,"장,":3584,"전쟁":3585,"제는":3586,"조를":3587,"캘리포":3588,"타가와":3589,"통일":3590,"하에":3591,"함에":3592,"했으나,":3593,"회가":3594,"▁있지":3595,"▁대법":3596,"▁대입":3597,"▁사라":3598,"▁그림":3599,"▁그대로":3600,"▁정리에":3601,"▁가져":3602,"▁전후":3603,"▁공화국":3604,"▁자원":3605,"▁중반":3606,"▁제한":3607,"▁아들":3608,"▁아버지":3609,"▁인하여":3610,"▁주의":3611,"▁보일":3612,"▁보인다.\r\n":3613,"▁모양":3614,"▁부등":3615,"▁소개":3616,"▁다음의":3617,"▁고등학교":3618,"▁선정":3619,"▁않아":3620,"▁해를":3621,"부터는":3622,"▁변형":3623,"▁어린":3624,"▁없었":3625,"▁스스로":3626,"▁마을":3627,"▁우리가":3628,"▁대통령에":3629,"▁재판":3630,"▁시작하였다.\r\n":3631,"▁여러가지":3632,"▁배우":3633,"▁물리량":3634,"▁달리":3635,"▁표현할":3636,"▁광복":3637,"▁얻을":3638,"▁현재는":3639,"▁하나로":3640,"▁1970년":3641,"▁1971년":3642,"▁소프트웨어를":3643,"▁과학적":3644,"▁지역의":3645,"▁본래":3646,"▁가능하다.\r\n":3647,"▁갖는다.\r\n":3648,"▁구성된":3649,"▁의미를":3650,"▁참여정부":3651,"▁선형대수":3652,"▁만들어진":3653,"▁조건을":3654,"▁범주":3655,"▁둘러":3656,"▁애국가의":3657,"▁마이크로소프트":3658,"▁봉하":3659,"▁아쿠타가와":3660,"캘리포니아":3661,"'이라고":3662,"EE":3663,"’,":3664,"▁π":3665,"▁『":3666,"▁끊":3667,"▁녹":3668,"▁딸":3669,"▁뛰":3670,"▁몽":3671,"▁묻":3672,"▁쇼":3673,"▁숫":3674,"▁왜":3675,"▁콘":3676,"▁펼":3677,"▁에서":3678,"개발":3679,"계로":3680,"고라":3681,"구,":3682,"구가":3683,"구는":3684,"규모":3685,"금을":3686,"도시":3687,"론과":3688,"리기":3689,"링크":3690,"명/":3691,"사이트":3692,"선과":3693,"선에서":3694,"에,":3695,"원에서":3696,"위가":3697,"음악":3698,"이던":3699,"재판":3700,"토르":3701,"했으며":3702,"화로":3703,"화에":3704,"▁이하":3705,"▁대륙":3706,"▁수치":3707,"▁기자":3708,"▁기사를":3709,"▁전화":3710,"▁하다.\r\n":3711,"▁하지만,":3712,"하였으며":3713,"▁인류":3714,"00년":3715,"▁보였다.\r\n":3716,"▁구체":3717,"▁조작":3718,"▁의하여":3719,"▁여겨":3720,"▁만나":3721,"▁고구려":3722,"▁미지":3723,"▁표면":3724,"▁해군":3725,"▁오래":3726,"▁오후":3727,"▁내려":3728,"▁formula_18":3729,"▁거주":3730,"▁설문":3731,"▁경우는":3732,"▁대통령을":3733,"▁차이":3734,"▁한국어":3735,"▁입자의":3736,"▁공간을":3737,"▁남아":3738,"▁체르":3739,"▁체첸":3740,"▁명령":3741,"▁재임":3742,"▁교수":3743,"▁시작되었다.\r\n":3744,"▁종합":3745,"▁2012년":3746,"▁확실":3747,"▁속력":3748,"▁속도를":3749,"▁직후":3750,"▁위키미디어":3751,"▁쓰이는":3752,"▁간주":3753,"▁안에":3754,"▁컴퓨터를":3755,"▁사람들은":3756,"▁수학의":3757,"▁일반화":3758,"▁저서":3759,"▁라틴":3760,"▁후보는":3761,"▁창조":3762,"▁허용":3763,"▁호환":3764,"▁인구밀":3765,"▁디지털":3766,"▁개념은":3767,"▁우크라이나의":3768,"▁시스템을":3769,"▁밝히":3770,"▁플레이":3771,"▁맞추":3772,"▁밀러":3773,"▁MS":3774,"▁잘못":3775,"▁누구":3776,"▁페이지":3777,"▁물질을":3778,"▁전자기파":3779,"▁좋은":3780,"▁다르다.\r\n":3781,"▁불구하고":3782,"▁덧셈":3783,"▁빅토르":3784,"▁앨범":3785,"▁불확정":3786,"▁칸토어":3787,"\"는":3788,".5":3789,"20":3790,"LL":3791,"ar":3792,"si":3793,"~1":3794,"▁V":3795,"▁s":3796,"▁〈":3797,"▁궁":3798,"▁몸":3799,"▁벨":3800,"▁싸":3801,"▁액":3802,"▁탐":3803,"▁헬":3804,"값은":3805,"공학":3806,"공화":3807,"과를":3808,"구의":3809,"권으로":3810,"내는":3811,"노스케":3812,"달러":3813,"당의":3814,"디아":3815,"란드":3816,"량은":3817,"리히":3818,"모가":3819,"물의":3820,"비트":3821,"생활":3822,"시와":3823,"약을":3824,"어들":3825,"위에":3826,"위의":3827,"이션":3828,"전에":3829,"전의":3830,"진화":3831,"쳤다.\r\n":3832,"페인":3833,"페이지":3834,"하지만,":3835,"하다가":3836,"향을":3837,"▁있으나,":3838,"▁수리":3839,"▁수수":3840,"▁수론적":3841,"▁사무":3842,"▁정도로":3843,"▁가산":3844,"▁2년":3845,"▁전략":3846,"▁전반":3847,"▁전투":3848,"▁공용":3849,"▁공리를":3850,"▁위반":3851,"▁자본":3852,"▁유엔":3853,"▁보유":3854,"▁방일":3855,"▁구하는":3856,"▁비난":3857,"▁비례":3858,"▁나머":3859,"▁발간":3860,"▁여성":3861,"▁관광":3862,"▁실수의":3863,"▁만에":3864,"▁만주":3865,"▁통과":3866,"▁사용된":3867,"▁사용되었다.\r\n":3868,"라고도":3869,"▁원칙":3870,"▁물의":3871,"▁31":3872,"▁해외":3873,"▁있는데":3874,"▁내각":3875,"▁작업을":3876,"▁변인":3877,"▁없이":3878,"▁초대":3879,"▁초반":3880,"▁진출":3881,"▁차이가":3882,"▁알고":3883,"▁공간에":3884,"▁나타난다.\r\n":3885,"▁독자":3886,"▁체결":3887,"▁명,":3888,"▁1997년":3889,"주의를":3890,"▁회의":3891,"▁정의된다.\r\n":3892,"▁직교":3893,"▁함수가":3894,"▁함수이다.\r\n":3895,"▁통해서":3896,"▁에너지가":3897,"▁이용해":3898,"▁노동자":3899,"▁참고":3900,"▁저그":3901,"▁당시의":3902,"▁근삿":3903,"▁활발":3904,"▁사회적":3905,"▁목적으로":3906,"▁1962년":3907,"▁이름으로":3908,"▁허수":3909,"▁문서의":3910,"▁0이":3911,"▁위치한":3912,"▁발표했다.\r\n":3913,"▁순서":3914,"▁기본적인":3915,"▁비판을":3916,"▁행렬식은":3917,"▁책임":3918,"▁필요로":3919,"▁백남준":3920,"▁오일러는":3921,"▁제외한":3922,"▁엄밀":3923,"▁돈을":3924,"▁DNA":3925,"▁먼저":3926,"▁체르멜":3927,"'이":3928,"-프":3929,".4":3930,"50":3931,":\r\n":3932,"BC":3933,"TA":3934,"▁e":3935,"▁겸":3936,"▁빚":3937,"▁삭":3938,"▁슬":3939,"▁윌":3940,"▁젊":3941,"▁좀":3942,"▁즐":3943,"▁짝":3944,"▁짧":3945,"▁택":3946,"▁털":3947,"▁희":3948,"▁으로":3949,"▁°C":3950,"》에서":3951,"계수":3952,"교회":3953,"느냐":3954,"단을":3955,"당은":3956,"대백과사전":3957,"더라도":3958,"동에":3959,"드르":3960,"료를":3961,"만큼":3962,"문화":3963,"베이":3964,"보안":3965,"뿐만":3966,"산을":3967,"선은":3968,"세계":3969,"소수":3970,"속도로":3971,"수학":3972,"스타크래프트":3973,"어서":3974,"었고,":3975,"원과":3976,"일부터":3977,"임스":3978,"장드르":3979,"제곱":3980,"지에서":3981,"쪽에":3982,"천만":3983,"트가":3984,"틀랜":3985,"하자.\r\n":3986,"▁이념":3987,"▁이뤄":3988,"▁이온":3989,"▁이인":3990,"▁있으나":3991,"▁있음을":3992,"▁1차":3993,"▁대체":3994,"▁수렴":3995,"▁수를":3996,"▁수용":3997,"▁사장":3998,"▁정신":3999,"▁정수의":4000,"▁한다는":4001,"▁28":4002,"▁일치":4003,"▁하기":4004,"▁중국의":4005,"▁제정":4006,"▁제주":4007,"▁제임스":4008,"▁인한":4009,"▁노건":4010,"▁주민":4011,"▁보이":4012,"▁나누":4013,"▁서양":4014,"▁분명":4015,"▁사용자가":4016,"▁\"노":4017,"▁38":4018,"▁불법":4019,"▁2005년":4020,"▁결성":4021,"▁집행":4022,"▁양성":4023,"▁formula_1에":4024,"▁없었다.\r\n":4025,"▁마련":4026,"▁에르":4027,"이나,":4028,"▁말을":4029,"▁바이":4030,"▁출간":4031,"▁그러한":4032,"▁1996년":4033,"▁집합을":4034,"▁크기를":4035,"▁정의한다.\r\n":4036,"▁확대":4037,"되었으며":4038,"▁언급":4039,"▁언제":4040,"▁쓰일":4041,"▁서울특별":4042,"▁에너지와":4043,"▁논문을":4044,"▁임명":4045,"▁국가를":4046,"▁점에서":4047,"▁formula_20":4048,"▁요청":4049,"▁근거":4050,"▁달라":4051,"▁1980년대":4052,"운동을":4053,"▁검토":4054,"▁formula_31":4055,"▁후보로":4056,"▁후보의":4057,"▁현재까지":4058,"▁못한":4059,"▁1949년":4060,"▁방법은":4061,"▁분야에":4062,"▁현대그룹":4063,"▁민간":4064,"▁갖고":4065,"▁완비":4066,"▁인구가":4067,"▁높아":4068,"▁순간":4069,"▁탄압":4070,"▁용어":4071,"▁이것을":4072,"▁제공하는":4073,"▁뜻을":4074,"▁승강":4075,"▁승리":4076,"▁변화를":4077,"▁결합을":4078,"▁16일":4079,"▁SU":4080,"▁속도가":4081,"▁혼란":4082,"▁자료를":4083,"▁협상":4084,"▁작품을":4085,"▁각각의":4086,"▁앙카라는":4087,"▁막스":4088,"▁글을":4089,"▁테란":4090,"▁테일러":4091,"▁다항식":4092,"▁준비":4093,"▁원주율을":4094,"▁TV":4095,"▁대상으로":4096,"▁민족주의":4097,"▁소수점":4098,"대학교,":4099,"▁깊은":4100,"▁임시정부":4101,"▁퇴임":4102,"▁르장드르":4103,"▁뉴턴의":4104,"시킨다.\r\n":4105,"▁겨울":4106,"▁베르누":4107,"명/km2":4108,"▁체르멜로":4109,"▁젊은":4110,"\"라는":4111,"-아":4112,"-켓":4113,"ET":4114,"OM":4115,"es":4116,"il":4117,"ou":4118,"▁c":4119,"▁d":4120,"▁밤":4121,"▁습":4122,"▁잇":4123,"▁쥘":4124,"▁착":4125,"▁캐":4126,"▁라고":4127,"▁캘리포니아":4128,"》는":4129,"가를":4130,"개월":4131,"계에서는":4132,"교육":4133,"국이":4134,"권이":4135,"나,":4136,"단은":4137,"단의":4138,"대가":4139,"델브":4140,"독교":4141,"드에서":4142,"듬해":4143,"렝켈":4144,"로로":4145,"료로":4146,"리올":4147,"밖에":4148,"부가":4149,"비탈":4150,"수,":4151,"수록":4152,"스탄":4153,"시의":4154,"어와":4155,"었으며,":4156,"에만":4157,"였고,":4158,"음이":4159,"이와":4160,"이므로,":4161,"인데,":4162,"자유":4163,"적은":4164,"조라":4165,"치의":4166,"포먼":4167,"프가":4168,"학년":4169,"항공":4170,"▁이적":4171,"▁이제":4172,"▁이듬해":4173,"▁있다":4174,"▁수사":4175,"▁다이":4176,"▁가우스":4177,"▁기타":4178,"▁기독교":4179,"▁공부":4180,"▁위원":4181,"▁위에서":4182,"▁시내":4183,"▁시장":4184,"▁유전":4185,"▁아무":4186,"▁인기를":4187,"▁주지":4188,"▁방출":4189,"▁구할":4190,"▁의하면":4191,"▁나이":4192,"▁여전히":4193,"▁소유":4194,"▁다음을":4195,"▁통하여":4196,"▁\"이":4197,"▁32":4198,"▁않고,":4199,"▁세워":4200,"▁세종":4201,"▁오전":4202,"▁집권":4203,"▁무렵":4204,"▁스위":4205,"까지의":4206,"▁이후로":4207,"▁대한민국에서는":4208,"▁우리":4209,"▁추정":4210,"▁진술":4211,"▁진화":4212,"▁바꾸":4213,"▁바다":4214,"▁강화":4215,"▁신뢰":4216,"▁차별":4217,"▁입자는":4218,"▁명의":4219,"▁적극":4220,"▁2018년":4221,"▁직선":4222,"▁위키는":4223,"▁논리":4224,"▁문제로":4225,"▁배열":4226,"▁배치":4227,"▁국가보안":4228,"▁formula_25":4229,"▁《스타크래프트":4230,"▁후보를":4231,"▁항공":4232,"▁필수":4233,"▁공식적인":4234,"▁민주화":4235,"▁방법이":4236,"▁과학자":4237,"▁피타":4238,"▁운영하는":4239,"거나,":4240,"▁분야에서":4241,"▁법칙에":4242,"▁법칙은":4243,"어진다.\r\n":4244,"▁게임을":4245,"▁이름은":4246,"▁완전":4247,"▁힘의":4248,"▁디랙":4249,"▁증명할":4250,"▁생각할":4251,"▁우크라이나는":4252,"▁특히,":4253,"▁뜻하는":4254,"▁서비스를":4255,"▁채취":4256,"▁채택":4257,"▁질량을":4258,"▁혼합":4259,"▁만들었다.\r\n":4260,"▁드라이":4261,"▁15일":4262,"▁상대성":4263,"▁상대적으로":4264,"▁데이터를":4265,"▁브라-켓":4266,"▁물질의":4267,"▁헌법재판":4268,"하려는":4269,"▁기반으로":4270,"▁퍼포먼":4271,"▁맥스웰은":4272,"▁여론조":4273,"▁간단한":4274,"▁단순한":4275,"▁단순히":4276,"▁프랑스":4277,"▁표기법은":4278,"▁월드":4279,"▁낮은":4280,"▁이외에도":4281,"▁강력한":4282,"▁몽골":4283,"공화국의":4284,"-프렝켈":4285,"▁체르멜로-프렝켈":4286,"▁쥘리아":4287,"\"으로":4288,"\"이라는":4289,".6":4290,"/,":4291,"21":4292,"3의":4293,"41":4294,"?\r\n":4295,"▁i":4296,"▁덕":4297,"▁삶":4298,"▁폰":4299,"건설":4300,"계는":4301,"과,":4302,"구와":4303,"군을":4304,"기고":4305,"는지":4306,"당에":4307,"두환":4308,"렀다.\r\n":4309,"력에":4310,"로의":4311,"론은":4312,"름을":4313,"름이":4314,"리스":4315,"만여":4316,"면을":4317,"받아":4318,"방을":4319,"번호":4320,"사하는":4321,"산이":4322,"상대":4323,"세가":4324,"스러":4325,"스에서":4326,"시대":4327,"양숙":4328,"어지는":4329,"여서":4330,"오조라":4331,"우리":4332,"인과":4333,"조건":4334,"좌표":4335,"쪽의":4336,"창호":4337,"체에":4338,"타카":4339,"텐서":4340,"페르":4341,"해석":4342,"▁이른":4343,"▁대략":4344,"▁대변":4345,"▁사설":4346,"▁그를":4347,"▁한자":4348,"하는데,":4349,"ore":4350,"▁전에":4351,"▁전두환":4352,"▁일관":4353,"▁공격":4354,"▁하면,":4355,"▁자치":4356,"▁시기":4357,"▁중단":4358,"▁중에서":4359,"▁중학교":4360,"▁아주":4361,"▁인식":4362,"▁주었다.\r\n":4363,"▁구현":4364,"▁모아":4365,"▁의사":4366,"▁문고":4367,"▁부여":4368,"▁실수는":4369,"▁동아":4370,"▁도심":4371,"▁도와":4372,"▁성분":4373,"▁후반":4374,"▁2000년대":4375,"▁오비탈":4376,"▁반지":4377,"▁양변":4378,"▁무기":4379,"하기로":4380,"▁변의":4381,"▁스타":4382,"▁거듭":4383,"▁거부":4384,"▁받는":4385,"▁대통령으로":4386,"▁강점":4387,"▁강제":4388,"▁강조":4389,"▁되기":4390,"▁출생":4391,"▁1994년":4392,"▁방정식으로":4393,"▁적이":4394,"▁정의에":4395,"▁위해서는":4396,"▁외부":4397,"▁종종":4398,"▁것이라고":4399,"▁쓰는":4400,"▁간의":4401,"▁안창호":4402,"▁임기":4403,"▁컴퓨터의":4404,"▁김해":4405,"▁사이트":4406,"▁노동운동":4407,"▁식은":4408,"▁formula_30":4409,"▁코리올":4410,"▁현재의":4411,"▁합법":4412,"▁사건을":4413,"▁사건이":4414,"▁1975년":4415,"▁1970년대":4416,"▁공식은":4417,"▁감지":4418,"▁188":4419,"▁분야의":4420,"▁폴링의":4421,"▁게임은":4422,"▁게임이":4423,"▁정보는":4424,"▁발전을":4425,"▁위치를":4426,"해서,":4427,"▁발표한":4428,"▁순수":4429,"▁권한":4430,"▁권양숙":4431,"▁있었던":4432,"▁금지":4433,"▁삼각함수의":4434,"▁만족하는":4435,"▁연산자":4436,"▁질량이":4437,"▁업무":4438,"▁검찰은":4439,"▁급격":4440,"▁다항식의":4441,"▁동치이다.\r\n":4442,"하려고":4443,"▁해당한다.\r\n":4444,"▁그것은":4445,"▁삼각형의":4446,"▁홍콩":4447,"▁특별한":4448,"▁보여주":4449,"▁견해":4450,"▁이로써":4451,"▁흔히":4452,"▁지지율이":4453,"chem":4454,"▁블리자드":4455,"▁류노스케":4456,"▁MS-DOS":4457,"▁국가보안법":4458,"\",":4459,"\"에":4460,",\r\n":4461,"/2":4462,"32":4463,"mm":4464,"▁p":4465,"▁t":4466,"▁y":4467,"▁z":4468,"▁납":4469,"▁냉":4470,"▁닫":4471,"▁컨":4472,"▁혜":4473,"▁훨":4474,"》을":4475,"가의":4476,"개,":4477,"곳에서":4478,"공항":4479,"광역":4480,"국,":4481,"국은":4482,"그라":4483,"단위":4484,"도르":4485,"도와":4486,"동산":4487,"되며":4488,"라우":4489,"력은":4490,"르고":4491,"를린":4492,"리엄":4493,"메데":4494,"멘트":4495,"물은":4496,"받은":4497,"버거":4498,"보는":4499,"분야":4500,"비를":4501,"스에":4502,"스턴":4503,"시안":4504,"시킬":4505,"실을":4506,"어야":4507,"용으로":4508,"위키":4509,"이다.":4510,"자리":4511,"적,":4512,"적분":4513,"제의":4514,"직을":4515,"쪽으로는":4516,"치고":4517,"치면서":4518,"케시마":4519,"키메데":4520,"태우":4521,"테이":4522,"해진":4523,"했지만":4524,"화와":4525,"회는":4526,"▁이사":4527,"▁있지만":4528,"▁대다":4529,"▁사고":4530,"▁사태":4531,"▁그에":4532,"▁한다고":4533,"▁가나":4534,"▁기후":4535,"▁전직":4536,"▁전자의":4537,"▁일상":4538,"▁공리는":4539,"▁공학은":4540,"▁하게":4541,"▁지식":4542,"▁자택":4543,"▁시행":4544,"하였으나,":4545,"▁유래":4546,"▁유신":4547,"▁아내":4548,"▁아오조라":4549,"▁인간의":4550,"▁주소":4551,"▁보면":4552,"▁경기도":4553,"▁비가":4554,"▁모순":4555,"▁나뉘":4556,"▁나뉜":4557,"▁연주":4558,"▁국소":4559,"▁문재":4560,"▁개통":4561,"▁상승":4562,"▁분산":4563,"▁분수":4564,"▁때에는":4565,"하고자":4566,"▁사용되는":4567,"▁고향":4568,"▁미군":4569,"▁동남":4570,"▁동물":4571,"▁물을":4572,"▁물이":4573,"▁36":4574,"▁3년":4575,"▁3차원":4576,"▁선고":4577,"▁도모":4578,"▁후,":4579,"▁세운":4580,"▁계기가":4581,"▁불과":4582,"▁오리":4583,"▁생명":4584,"▁formula_17":4585,"▁없다고":4586,"되어야":4587,"▁스페인":4588,"▁50":4589,"▁초에":4590,"▁추모":4591,"▁말은":4592,"▁경우에":4593,"▁경우에는":4594,"▁되기도":4595,"▁입당":4596,"▁입장을":4597,"▁형식":4598,"▁적절":4599,"▁회복":4600,"▁크기":4601,"▁크림":4602,"▁외에":4603,"▁확보":4604,"▁직각":4605,"▁직원":4606,"▁여러차례":4607,"8년에":4608,"▁에너지로":4609,"▁이용하는":4610,"▁임금":4611,"▁컴퓨터가":4612,"▁수학에서,":4613,"▁문제는":4614,"▁산소":4615,"▁데에":4616,"▁이론의":4617,"▁점을":4618,"▁formula_21":4619,"▁물리학의":4620,"▁요한":4621,"▁자유롭게":4622,"▁식민":4623,"▁1986년":4624,"▁리그":4625,"▁리처":4626,"▁편차":4627,"하면\r\n":4628,"▁하나이다.\r\n":4629,"▁formula_4의":4630,"▁주장하는":4631,"▁소프트웨어는":4632,"▁민주주의":4633,"▁1961년":4634,"▁현대의":4635,"▁가능성이":4636,"▁정치인":4637,"▁완성":4638,"▁구성하는":4639,"▁디자인":4640,"▁발견된":4641,"▁발견한":4642,"▁순환":4643,"▁측근":4644,"▁증명하였다.\r\n":4645,"▁시대의":4646,"▁시간이":4647,"이라며":4648,"▁이것이":4649,"▁올라":4650,"▁치료":4651,"▁조사에서":4652,"▁원소는":4653,"▁원소를":4654,"나라의":4655,"▁지원을":4656,"▁투신":4657,"▁원자핵":4658,"▁평가를":4659,"▁베스핀":4660,"▁베를린":4661,"▁선거에서":4662,"▁체제의":4663,"▁친구":4664,"▁내용이":4665,"▁독립운동":4666,"▁오일러의":4667,"▁이루어져":4668,"▁정권의":4669,"▁대수적":4670,"▁BBS":4671,"하려면":4672,"▁불교는":4673,"▁물체가":4674,"▁대해서도":4675,"▁수준의":4676,"▁태어난":4677,"▁프랑스의":4678,"▁최고의":4679,"▁하이젠베르크":4680,"▁그래픽":4681,"▁허가서":4682,"▁제시하였다.\r\n":4683,"▁놓고":4684,"▁뿐만":4685,"▁정상문":4686,"▁경찰은":4687,"▁넓은":4688,"▁29일":4689,"▁윤치호가":4690,"▁나오는":4691,"▁주기율":4692,"▁중성미":4693,"▁히라가나":4694,"정상회담":4695,"▁아르키메데":4696,"▁내보냈다.\r\n":4697,"▁흡수":4698,"▁뛰어":4699,"▁불확정성":4700,"▁나머지":4701,"▁노건평":4702,"▁이른바":4703,"chem>":4704,"▁훨씬":4705,"\"로":4706,"\"을":4707,"%의":4708,"'는":4709,"'은":4710,"'의":4711,"7만":4712,"TV":4713,"le":4714,"op":4715,"ra":4716,"▁Z":4717,"▁맵":4718,"▁붕":4719,"▁삽":4720,"▁쇠":4721,"▁숙":4722,"▁십":4723,"▁써":4724,"▁옛":4725,"▁짓":4726,"▁컬":4727,"▁횟":4728,"간다.\r\n":4729,"공을":4730,"구에":4731,"구조":4732,"군은":4733,"기인":4734,"너스":4735,"노조":4736,"단에":4737,"동차":4738,"되게":4739,"되자":4740,"등의":4741,"력,":4742,"론에":4743,"류가":4744,"마트":4745,"만의":4746,"명에":4747,"모를":4748,"문제":4749,"물질":4750,"반응":4751,"부와":4752,"비쇼":4753,"상에":4754,"서,":4755,"소설":4756,"시를":4757,"안을":4758,"어져":4759,"었던":4760,"위에서":4761,"의가":4762,"인먼":4763,"인들이":4764,"인들을":4765,"자들":4766,"자동차":4767,"전이":4768,"졌고,":4769,"주기":4770,"준다.\r\n":4771,"지점":4772,"통합":4773,"함수가":4774,"했을":4775,"했는데,":4776,"행렬":4777,"형을":4778,"회에":4779,"▁이래":4780,"▁이중":4781,"▁이끌어":4782,"▁1.1":4783,"▁대개":4784,"▁대기":4785,"▁대량":4786,"▁대립":4787,"▁대체로":4788,"▁대규모":4789,"▁수반":4790,"▁사례":4791,"▁그중":4792,"▁그들은":4793,"▁그들의":4794,"▁정리를":4795,"▁다니":4796,"▁기관":4797,"▁일이":4798,"▁하인":4799,"▁지난":4800,"▁지닌":4801,"▁지수":4802,"▁지정":4803,"▁등록":4804,"▁것도":4805,"▁제국의":4806,"▁인근":4807,"▁노조":4808,"▁노태우":4809,"▁주어졌":4810,"▁보는":4811,"▁보호":4812,"▁방식으로":4813,"▁조문":4814,"▁연관":4815,"▁문예":4816,"▁개선":4817,"▁개정":4818,"▁상징":4819,"▁부터":4820,"▁분해":4821,"▁통제":4822,"▁통치":4823,"▁사용한":4824,"▁사용하였다.\r\n":4825,"▁고정":4826,"▁동료":4827,"▁물론":4828,"▁3일":4829,"▁3가지":4830,"▁후에는":4831,"▁세대":4832,"▁'대한":4833,"▁해안":4834,"▁계열":4835,"▁불가":4836,"▁불린다.\r\n":4837,"▁오스":4838,"▁오직":4839,"▁반박":4840,"▁반발":4841,"▁반면,":4842,"▁스포":4843,"▁각의":4844,"▁받지":4845,"▁이후에":4846,"▁이후에는":4847,"▁45":4848,"▁예측":4849,"▁추구":4850,"▁추천":4851,"▁진동":4852,"▁말로":4853,"▁역학":4854,"▁평양":4855,"▁되면서":4856,"▁공간이다.\r\n":4857,"▁나타나는":4858,"▁출발":4859,"▁정의를":4860,"▁외계":4861,"▁종료":4862,"▁장의":4863,"▁장치":4864,"▁복사":4865,"▁속에서":4866,"▁증거":4867,"▁에너지의":4868,"▁60":4869,"▁64":4870,"▁산술":4871,"▁존재하는":4872,"▁국가의":4873,"▁점이":4874,"▁노동자들이":4875,"▁참석":4876,"▁세계에서":4877,"▁식이":4878,"▁1982년":4879,"▁1984년":4880,"▁자연과":4881,"▁자연수":4882,"▁것으로,":4883,"▁포함하는":4884,"▁formula_45":4885,"▁1974년":4886,"▁목적":4887,"▁관계는":4888,"▁1967년":4889,"▁피시":4890,"▁피해":4891,"▁분야이다.\r\n":4892,"▁프로그래":4893,"▁정보가":4894,"▁창간":4895,"▁창립":4896,"시키고":4897,"▁구성되어":4898,"▁발견하였다.\r\n":4899,"▁측은":4900,"▁수도권":4901,"▁1950년":4902,"▁카페":4903,"▁시대를":4904,"▁권위":4905,"▁물리학자":4906,"▁살아":4907,"▁용어는":4908,"▁과정에":4909,"▁버스":4910,"▁1924년":4911,"▁상태에":4912,"▁사실상":4913,"▁길이를":4914,"▁지원하는":4915,"▁투쟁":4916,"▁평가가":4917,"▁베이":4918,"▁기록했다.\r\n":4919,"인민공화국의":4920,"▁조건이":4921,"▁친일":4922,"▁농업":4923,"▁둘레":4924,"▁다항식은":4925,"▁FTA":4926,"▁원주율은":4927,"▁되었고,":4928,"000만":4929,"▁운동량의":4930,"▁커널은":4931,"▁넘어":4932,"▁단일화":4933,"▁쿼크는":4934,"▁웹사이트":4935,"▁조선민주주의인민공화국의":4936,"▁엔트로피는":4937,"▁늘어나":4938,"▁100만":4939,"▁이르러":4940,"▁정확한":4941,"▁무리수":4942,"▁빠르게":4943,"▁플랑크는":4944,"▁키노":4945,"▁엄청":4946,"▁기저를":4947,"▁25일":4948,"▁비교적":4949,"▁푸리에":4950,"▁외국인":4951,"▁유도할":4952,"▁찬양":4953,"사건,":4954,"▁모습을":4955,"▁의혹이":4956,"▁지하철":4957,"▁멀티":4958,"▁리눅스":4959,"▁잘못된":4960,"▁방일영":4961,"▁백남준은":4962,"▁언제나":4963,"▁드라이브":4964,"▁리처드":4965,"▁주기율표":4966,"▁붕괴":4967,"\"와":4968,"-4":4969,"2,":4970,"PC":4971,"gin":4972,"om":4973,"oo":4974,"▁>":4975,"▁×":4976,"▁꼭":4977,"▁꼴":4978,"▁끌":4979,"▁낳":4980,"▁넣":4981,"▁돕":4982,"▁띄":4983,"▁띠":4984,"▁맺":4985,"▁묶":4986,"▁뮌":4987,"▁벗":4988,"▁뽑":4989,"▁셀":4990,"▁컴":4991,"▁팜":4992,"▁획":4993,"▁까지":4994,"▁끌어":4995,"》,":4996,"》의":4997,"가에":4998,"경을":4999,"공간의":5000,"구에서":5001,"군이":5002,"기관":5003,"남도":5004,"능을":5005,"다”":5006,"드시":5007,"라면":5008,"량을":5009,"리우":5010,"면에서":5011,"명은":5012,"본부":5013,"분포":5014,"사상":5015,"산업":5016,"상호":5017,"상으로":5018,"상에서":5019,"석,":5020,"시로":5021,"식과":5022,"었다는":5023,"역을":5024,"이면":5025,"이지만,":5026,"작품":5027,"재를":5028,"정수":5029,"정의":5030,"지니":5031,"지도":5032,"지어":5033,"천,":5034,"체와":5035,"치지":5036,"케이션":5037,"켤레":5038,"탈리아":5039,"트남":5040,"티즌":5041,"펜하":5042,"하므로":5043,"하르트":5044,"한다면":5045,"향의":5046,"화되어":5047,"▁이끌":5048,"▁이탈리아":5049,"▁1호":5050,"▁1위를":5051,"▁대대":5052,"▁대형":5053,"에서부터":5054,"▁수입":5055,"▁수출":5056,"▁사퇴":5057,"▁정착":5058,"▁다수":5059,"▁가타카":5060,"▁기각":5061,"▁전혀":5062,"▁공학의":5063,"▁공집합":5064,"▁하며":5065,"▁하기도":5066,"▁지니":5067,"▁지표":5068,"▁지휘":5069,"▁지식을":5070,"▁자체":5071,"▁시기에":5072,"▁유대":5073,"▁유입":5074,"하여야":5075,"▁주한":5076,"▁구축":5077,"▁나와":5078,"▁나중에":5079,"▁나아가":5080,"▁서술":5081,"▁부동산":5082,"▁분열":5083,"▁실질":5084,"▁따로":5085,"▁만은":5086,"▁통상":5087,"▁원리를":5088,"▁고안":5089,"▁미래":5090,"▁동아시아":5091,"▁표본":5092,"▁도스는":5093,"▁성소수":5094,"▁해가":5095,"▁해방":5096,"▁계기로":5097,"▁오사":5098,"▁결론":5099,"▁반대로":5100,"▁내놓":5101,"▁단결":5102,"▁단어":5103,"▁프리":5104,"▁어렵":5105,"▁스크":5106,"▁스마트":5107,"▁5,":5108,"▁5년":5109,"▁특성":5110,"▁특성을":5111,"▁우변":5112,"▁운동이":5113,"▁신라":5114,"▁역대":5115,"▁파병":5116,"▁한국은":5117,"▁되면":5118,"▁남겼":5119,"▁남상":5120,"▁포인":5121,"▁그러므로":5122,"▁체포":5123,"▁체비쇼":5124,"▁회장":5125,"▁시작된":5126,"▁종로":5127,"▁2017년":5128,"▁것이었다.\r\n":5129,"되었으나":5130,"▁언어를":5131,"▁미국에":5132,"▁연구는":5133,"▁쓰여":5134,"▁쓰이고":5135,"▁서울시":5136,"▁삼국":5137,"▁삼성":5138,"▁열역학":5139,"▁국가로":5140,"▁formula_22":5141,"▁formula_24":5142,"▁요소":5143,"▁벡터곱":5144,"▁건축":5145,"▁자유를":5146,"▁식으로":5147,"▁달하는":5148,"▁1989년":5149,"▁표현이":5150,"▁formula_35":5151,"▁얻었다.\r\n":5152,"▁합병":5153,"▁포함한다.\r\n":5154,"▁포함하고":5155,"▁formula_40":5156,"▁95":5157,"▁공식을":5158,"▁목소":5159,"▁소프트웨어의":5160,"▁186":5161,"▁187":5162,"▁1969년":5163,"▁1960년대":5164,"▁실험은":5165,"▁청년":5166,"▁청소":5167,"▁힘이":5168,"▁결과가":5169,"▁발표하였다.\r\n":5170,"▁철학":5171,"▁따르는":5172,"▁변화가":5173,"▁타이":5174,"▁언론의":5175,"▁길이는":5176,"▁책을":5177,"▁메모":5178,"▁네이":5179,"▁업체":5180,"▁유리수의":5181,"▁조건들이":5182,"▁체제를":5183,"▁기능이":5184,"▁데이터베이":5185,"▁정책을":5186,"▁도입하였다.\r\n":5187,"▁터치":5188,"▁등장하는":5189,"▁라이프":5190,"▁이루어졌다.\r\n":5191,"▁넘는":5192,"▁탈당":5193,"▁대선에서":5194,"▁레닌":5195,"▁그것이":5196,"▁최근에는":5197,"▁PDA의":5198,"▁그렇게":5199,"▁보도했다.\r\n":5200,"▁실패한":5201,"▁그래서":5202,"▁23일":5203,"▁휴대":5204,"▁확인할":5205,"▁달러를":5206,"▁대칭을":5207,"▁일으키":5208,"▁지금은":5209,"▁유한한":5210,"▁특징을":5211,"▁광고를":5212,"▁움직이는":5213,"▁낙선":5214,"▁이야기":5215,"▁수소결합":5216,"▁그런데":5217,"스포츠":5218,"▁간첩단":5219,"▁훈련":5220,"▁국무총":5221,"▁동일한":5222,"▁치러진":5223,"프리카":5224,"▁판결을":5225,"학생회연합":5226,"▁징역":5227,"▁콜라":5228,"▁레이블":5229,"▁인구밀도":5230,"▁누구나":5231,"▁삭제":5232,"▁윌리엄":5233,"델브로":5234,"▁다이슨":5235,"▁코리올리":5236,"▁나뉜다.\r\n":5237,"▁스포츠":5238,"▁피시방":5239,"▁뮌헨":5240,"상호작용":5241,"\"이라며":5242,"%가":5243,"-3":5244,".8":5245,".9":5246,"200":5247,"60":5248,"6대":5249,"EL":5250,"of":5251,"ter":5252,"▁b":5253,"▁맹":5254,"▁먹":5255,"▁밴":5256,"▁셈":5257,"▁왓":5258,"▁척":5259,"▁촉":5260,"▁텔":5261,"▁햄":5262,"▁.\r\n":5263,"▁링크":5264,"》를":5265,"》에":5266,"가,":5267,"가가":5268,"관은":5269,"군의":5270,"그레이":5271,"기구":5272,"네거":5273,"니즘":5274,"당과":5275,"데이":5276,"되면":5277,"된다는":5278,"두고":5279,"드가":5280,"등을":5281,"디터":5282,"량이":5283,"로봇":5284,"로운":5285,"류를":5286,"르타":5287,"리지":5288,"리에서":5289,"마을":5290,"모는":5291,"미를":5292,"받고":5293,"받았다.\r\n":5294,"방법":5295,"보다는":5296,"비아":5297,"사람":5298,"상은":5299,"색편":5300,"생물":5301,"석을":5302,"선으로":5303,"세의":5304,"속운동":5305,"시장":5306,"식,":5307,"안이":5308,"연산":5309,"용을":5310,"율을":5311,"이에":5312,"인에":5313,"일본":5314,"자치":5315,"정에":5316,"조의":5317,"조차":5318,"지,":5319,"쪽은":5320,"철도":5321,"카야":5322,"코프":5323,"크를":5324,"튀르크":5325,"트와":5326,"틀넷":5327,"파가":5328,"파의":5329,"표를":5330,"프레":5331,"플러":5332,"하겠":5333,"학에":5334,"한다면,":5335,"형은":5336,"화,":5337,"▁이라":5338,"▁이고,":5339,"▁사전":5340,"▁그럼":5341,"▁정도를":5342,"▁정도의":5343,"▁다수의":5344,"▁가설":5345,"▁일대":5346,"▁공약":5347,"▁공부를":5348,"▁위험":5349,"▁하계":5350,"▁하루":5351,"▁하우스":5352,"▁자격":5353,"▁자발":5354,"▁등가":5355,"하였는데,":5356,"▁제대로":5357,"▁유니":5358,"▁유전자":5359,"▁아민":5360,"▁아칸":5361,"▁아프리카":5362,"▁주고":5363,"▁주는":5364,"00만":5365,"▁보면,":5366,"▁보도를":5367,"▁보냈다.\r\n":5368,"▁방식을":5369,"▁경상":5370,"▁경선":5371,"▁비로":5372,"▁비서관":5373,"▁조금":5374,"▁모집":5375,"▁나치":5376,"▁국공":5377,"▁발매":5378,"▁문학은":5379,"▁개설":5380,"▁개입":5381,"▁상업":5382,"▁관습":5383,"▁부호":5384,"▁때부터":5385,"▁실현":5386,"▁실수를":5387,"▁실시간":5388,"▁실계수":5389,"▁따른다.\r\n":5390,"▁또,":5391,"▁또다":5392,"▁소득":5393,"▁소수의":5394,"▁다음은":5395,"▁사용하고":5396,"▁고문":5397,"▁고용":5398,"▁표제":5399,"▁선포":5400,"▁않으면":5401,"▁도구":5402,"▁도출":5403,"▁운용":5404,"▁'한":5405,"▁해양":5406,"▁해인":5407,"▁오픈":5408,"▁집계":5409,"▁집필":5410,"▁내에서":5411,"▁양수":5412,"▁스트":5413,"까지도":5414,"▁마주":5415,"▁50%":5416,"▁이후의":5417,"▁이후에도":5418,"▁41":5419,"▁4개의":5420,"▁대한민국에서":5421,"▁말에":5422,"▁역학에서":5423,"▁평행":5424,"▁한국인":5425,"▁한국대학":5426,"▁남은":5427,"▁독재":5428,"▁더한":5429,"▁교환":5430,"▁회사":5431,"▁크롤":5432,"▁행정부":5433,"▁시작하여":5434,"▁위해,":5435,"▁종이":5436,"▁확립":5437,"▁학습":5438,"▁속에":5439,"▁속력이":5440,"▁가지는":5441,"▁가지의":5442,"되었다고":5443,"▁연구에":5444,"▁매년":5445,"▁매체":5446,"▁에너지,":5447,"▁안의":5448,"▁컴퓨터는":5449,"▁사람과":5450,"▁존재한다는":5451,"▁약속":5452,"▁정부를":5453,"▁정부에":5454,"▁게시":5455,"▁게다가":5456,"▁노동자의":5457,"▁formula_26":5458,"▁formula_2는":5459,"▁formula_2에":5460,"▁물리적":5461,"▁당시에는":5462,"▁근본":5463,"▁10일":5464,"6년에는":5465,"▁라디오":5466,"▁1981년":5467,"▁표현은":5468,"▁광역":5469,"▁편이다.\r\n":5470,"▁얻어":5471,"▁총재":5472,"▁총선에서":5473,"▁북부":5474,"▁하나는":5475,"▁formula_46":5476,"▁사회의":5477,"▁공식에":5478,"▁태어나":5479,"▁주장한다.\r\n":5480,"▁CE":5481,"▁C를":5482,"▁지역은":5483,"▁중심을":5484,"▁본질":5485,"하면서,":5486,"로서는":5487,"▁문서는":5488,"▁0인":5489,"▁성질이":5490,"▁앙고라":5491,"▁1950년대":5492,"▁카메":5493,"▁카터":5494,"▁PC방":5495,"▁활동에":5496,"▁있었으며,":5497,"▁지지를":5498,"▁금융":5499,"▁시스템의":5500,"▁철도":5501,"▁복소수를":5502,"▁제1차":5503,"▁1923년":5504,"▁1936년":5505,"▁만족시킨다.\r\n":5506,"▁서비스는":5507,"▁행렬의":5508,"▁된다는":5509,"▁비롯해":5510,"▁메이지":5511,"▁천문":5512,"▁응답":5513,"▁줄어들":5514,"▁네티즌":5515,"▁업그레이":5516,"▁야스":5517,"▁혼자":5518,"▁1910년":5519,"▁아래에서":5520,"▁만들고":5521,"▁산업별":5522,"▁앞서":5523,"▁패러":5524,"▁아니라,":5525,"▁등장하였다.\r\n":5526,"▁파일을":5527,"▁차지하고":5528,"▁고전적인":5529,"▁빛이":5530,"▁서버를":5531,"▁노동조합의":5532,"▁쌍대":5533,"▁이유는":5534,"▁프로젝트의":5535,"▁수상했다.\r\n":5536,"▁헤이":5537,"▁엔트로피의":5538,"▁NLL":5539,"▁LG":5540,"하거나,":5541,"▁그렇다면,":5542,"...":5543,"▁소련의":5544,"▁의원은":5545,"▁침략":5546,"▁발언을":5547,"▁재단은":5548,"▁유사한":5549,"▁불가능한":5550,"▁일정하게":5551,"전자기":5552,"▁변호사":5553,"▁클린턴은":5554,"▁뇌물":5555,"▁제목의":5556,"▁페르미":5557,"▁본격적인":5558,"▁썼다.\r\n":5559,"▁옮겨":5560,"▁홈페이지":5561,"▁정주영":5562,"▁관점에서":5563,"▁둘러싸":5564,"▁오래된":5565,"▁승강기":5566,"orea":5567,"▁동아일보":5568,"▁동남아시아":5569,"▁도모나가":5570,"▁프로그래밍":5571,"▁체비쇼프":5572,"▁왓슨":5573,"\"고":5574,"'에서":5575,"/s":5576,"86":5577,"EC":5578,"a\"":5579,"ec":5580,"ed":5581,"he":5582,"ob":5583,"os":5584,"▁J":5585,"▁긍":5586,"▁꾸":5587,"▁됐":5588,"▁뒷":5589,"▁렙":5590,"▁몫":5591,"▁뿌":5592,"▁샌":5593,"▁샤":5594,"▁섞":5595,"▁숭":5596,"▁쉬":5597,"▁싯":5598,"▁씨":5599,"▁억":5600,"▁옆":5601,"▁잔":5602,"▁쟁":5603,"▁펜":5604,"▁헨":5605,"▁됐다.\r\n":5606,"▁텐서":5607,"▁켤레":5608,"가인":5609,"값이":5610,"개국":5611,"겨레":5612,"공간":5613,"관리":5614,"교,":5615,"국에":5616,"권은":5617,"극을":5618,"근혜":5619,"누리":5620,"단체로":5621,"당했다.\r\n":5622,"대와":5623,"대표":5624,"데미":5625,"돌프":5626,"됨에":5627,"드,":5628,"드로":5629,"들로부터":5630,"라,":5631,"랐다.\r\n":5632,"력으로":5633,"로즈":5634,"론에서":5635,"리케이션":5636,"마니아":5637,"만으로":5638,"배우":5639,"부로":5640,"부르크":5641,"브라":5642,"사관":5643,"상과":5644,"서에":5645,"서울":5646,"석은":5647,"선형":5648,"섰다.\r\n":5649,"세에":5650,"소에서":5651,"속도는":5652,"수라고":5653,"씨는":5654,"아노":5655,"안은":5656,"연맹":5657,"예프":5658,"온하르트":5659,"올림픽":5660,"워제":5661,"으므로,":5662,"은\r\n":5663,"이온":5664,"이지만":5665,"인데":5666,"장인":5667,"장학":5668,"전에서":5669,"졌으며,":5670,"즈미":5671,"진을":5672,"짜리":5673,"차가":5674,"총학생회연합":5675,"층의":5676,"킨토":5677,"터테":5678,"토로":5679,"투쟁":5680,"트,":5681,"팅겐":5682,"평화":5683,"하나":5684,"하다":5685,"한다":5686,"해보":5687,"헌을":5688,"혁명":5689,"혔다.\r\n":5690,"호회":5691,"화되었다.\r\n":5692,"회,":5693,"힌다.\r\n":5694,"▁이곳":5695,"▁이집":5696,"▁이항":5697,"▁이들을":5698,"으로도":5699,"▁대답":5700,"▁대비":5701,"▁대의":5702,"▁대학생":5703,"▁수증":5704,"▁사후":5705,"▁사업을":5706,"▁그려":5707,"▁그로":5708,"▁그룹":5709,"▁정렬":5710,"▁다중":5711,"▁가질":5712,"▁기억":5713,"▁2만":5714,"▁19일":5715,"▁공기":5716,"▁공중":5717,"▁공통":5718,"▁위와":5719,"▁하위":5720,"▁지미":5721,"▁자원을":5722,"하였다고":5723,"▁제5":5724,"▁유죄":5725,"▁아카":5726,"▁인기":5727,"▁주인":5728,"▁보스":5729,"▁경계":5730,"▁의무":5731,"▁나눈":5732,"▁연루":5733,"▁국호를":5734,"▁발해":5735,"▁서민":5736,"▁문학의":5737,"▁문자를":5738,"▁문학을":5739,"▁개편":5740,"▁상을":5741,"▁상의":5742,"▁상수를":5743,"▁부인":5744,"▁분단":5745,"▁때의":5746,"▁실용":5747,"▁소거":5748,"▁소송":5749,"▁소스":5750,"▁만의":5751,"▁사용되고":5752,"▁원시":5753,"▁원점":5754,"▁\"b":5755,"▁고급":5756,"▁고종":5757,"▁고조선":5758,"▁미세":5759,"▁미시":5760,"▁동계":5761,"▁동부":5762,"▁물건":5763,"▁35":5764,"▁선호":5765,"▁성서":5766,"▁성장을":5767,"▁후원":5768,"▁세무":5769,"▁계에":5770,"▁오스트":5771,"▁반공":5772,"▁반드시":5773,"▁내세":5774,"▁formula_1가":5775,"▁무교회":5776,"▁작사":5777,"▁프랭":5778,"▁변수의":5779,"▁노무현과":5780,"▁노무현을":5781,"▁5·1":5782,"▁거론":5783,"▁거짓":5784,"▁거치면서":5785,"▁이후,":5786,"▁4,":5787,"▁40":5788,"▁대한민국과":5789,"▁예이다.\r\n":5790,"▁진학":5791,"▁일본인":5792,"▁말하는":5793,"▁강의":5794,"▁신앙":5795,"▁나타낸":5796,"▁남부":5797,"▁명확":5798,"▁재학":5799,"주의자":5800,"▁방정식이다.\r\n":5801,"▁존중":5802,"▁적은":5803,"▁회원":5804,"▁장악":5805,"하지는":5806,"▁미국과":5807,"▁연구가":5808,"▁매개":5809,"▁매킨토":5810,"▁서울은":5811,"▁서울을":5812,"▁서울에서":5813,"▁안에서":5814,"▁사람을":5815,"▁사람의":5816,"▁수학자들은":5817,"▁존재할":5818,"▁국가에":5819,"▁이론적으로":5820,"▁점화":5821,"▁사이에는":5822,"▁노동인":5823,"▁노동자들은":5824,"▁formula_23":5825,"▁formula_2가":5826,"▁참가":5827,"▁새누리":5828,"▁저술":5829,"5년에":5830,"5년에는":5831,"▁근의":5832,"▁80":5833,"▁건강":5834,"▁활약":5835,"▁세계적인":5836,"▁식의":5837,"▁표현을":5838,"▁자연수를":5839,"▁자연로그":5840,"▁formula_37":5841,"▁리서":5842,"▁편리":5843,"▁합쳐":5844,"▁할당":5845,"▁북방":5846,"▁formula_41":5847,"▁formula_43":5848,"▁1979년":5849,"▁사회에":5850,"▁사회주의":5851,"▁1940년":5852,"▁관계에":5853,"세기에":5854,"▁1968년":5855,"▁1964년":5856,"▁박근혜":5857,"▁지역으로":5858,"▁구조와":5859,"▁법칙과":5860,"▁계산을":5861,"▁계산할":5862,"▁계산하였다.\r\n":5863,"▁현대자동차":5864,"▁값으로":5865,"▁값이다.\r\n":5866,"▁국민들의":5867,"다\"는":5868,"다\"면서":5869,"▁관련하여":5870,"▁창당":5871,"▁창시":5872,"로서,":5873,"▁개발한":5874,"▁프로그램의":5875,"▁프로그램이":5876,"▁중국어":5877,"▁대부분이":5878,"▁성질에":5879,"▁카를":5880,"▁이상이":5881,"▁증명하는":5882,"▁엔터테":5883,"▁토론":5884,"▁기본적으로":5885,"▁있었고,":5886,"▁인터뷰":5887,"▁비판이":5888,"▁비판하는":5889,"▁살고":5890,"▁않는다는":5891,"▁삼각함수":5892,"▁만들어졌다.\r\n":5893,"▁formula_66":5894,"▁제16대":5895,"▁1939년":5896,"▁했던":5897,"▁채팅":5898,"▁러시아의":5899,"▁17일":5900,"▁밀도":5901,"▁결합은":5902,"▁베트남":5903,"▁야당":5904,"▁마이클":5905,"▁작품이":5906,"▁검찰이":5907,"▁국제단위":5908,"▁1월에":5909,"▁사망했다.\r\n":5910,"▁둘째":5911,"▁담긴":5912,"▁패턴":5913,"▁누피":5914,"▁하이텔":5915,"▁브라와":5916,"▁무한히":5917,"▁라이너스":5918,"▁설립하였다.\r\n":5919,"▁슈워제":5920,"▁정권을":5921,"▁발생한":5922,"▁실제로는":5923,"▁동치이며,":5924,"▁동치관계":5925,"▁논란,":5926,"▁양자역학은":5927,"▁연결하는":5928,"▁노동조합은":5929,"▁대학교의":5930,"방정식의":5931,"▁지구의":5932,"▁벌어":5933,"▁물체는":5934,"▁생성열":5935,"▁각운동량은":5936,"▁남북정상회담":5937,"▁맥스웰의":5938,"▁늘어":5939,"▁레온하르트":5940,"▁그것을":5941,"▁백과사전은":5942,"▁이르는":5943,"▁정확히":5944,"▁정확하게":5945,"▁관심이":5946,"ent":5947,"engin":5948,"▁제외하고":5949,"▁그래프":5950,"▁하였고,":5951,"ing":5952,"▁분포를":5953,"▁일어났":5954,"▁일어났다.\r\n":5955,"▁찾아볼":5956,"▁초월수":5957,"▁잠시":5958,"▁향상":5959,"▁효과를":5960,"▁유카와는":5961,"▁박연차로부터":5962,"▁덧붙":5963,"하면,\r\n":5964,"▁아인슈타인은":5965,"▁논쟁이":5966,"▁묘사":5967,"▁빼앗":5968,"▁26일":5969,"▁화합물을":5970,"▁운동에너지":5971,"▁목표로":5972,"▁24일":5973,"▁국회의원":5974,"▁괴팅겐":5975,"▁충분히":5976,"▁방응모의":5977,"▁생겨났다.\r\n":5978,"▁얼마":5979,"▁봉하마을":5980,"▁서울특별시":5981,"ETEL":5982,"▁나이로":5983,"▁월드컵":5984,"도르프":5985,"▁하인리히":5986,"▁벗어나":5987,"지니어":5988,"▁성소수자":5989,"▁오사카":5990,"▁스마트폰":5991,"▁포인팅":5992,"▁레닌그라":5993,"▁콜라츠":5994,"▁텔레":5995,"▁아칸소":5996,"▁한국대학총학생회연합":5997,"▁긍정":5998,"▁엔터테인먼":5999,"▁슈워제네거":6000,"\"은":6001,"\"에서":6002,"-힐베르트":6003,"16":6004,"35":6005,"40":6006,"59":6007,"62":6008,"MF":6009,"ur":6010,"ΔH":6011,"▁v":6012,"▁굳":6013,"▁균":6014,"▁냈":6015,"▁듯":6016,"▁랭":6017,"▁맛":6018,"▁벤":6019,"▁벽":6020,"▁빨":6021,"▁숨":6022,"▁싶":6023,"▁씌":6024,"▁옹":6025,"▁익":6026,"▁촛":6027,"▁탑":6028,"▁튜":6029,"▁팩":6030,"▁km2":6031,"▁of":6032,"▁ΔH":6033,"값에서":6034,"고를":6035,"고속도로":6036,"교가":6037,"구간":6038,"구에는":6039,"권과":6040,"기간":6041,"낱말":6042,"노가":6043,"니스":6044,"니츠":6045,"단으로":6046,"대문":6047,"독립":6048,"동이":6049,"되거나":6050,"드러":6051,"등이":6052,"라브":6053,"락을":6054,"랫동안":6055,"려가":6056,"려는":6057,"로도":6058,"류의":6059,"르,":6060,"리즈":6061,"린은":6062,"만에":6063,"머스":6064,"멤버":6065,"면에":6066,"면이":6067,"무라":6068,"미암":6069,"백산":6070,"버스":6071,"법은":6072,"법으로":6073,"별로":6074,"비가":6075,"비서관":6076,"사각":6077,"사이드":6078,"산화":6079,"상이":6080,"생의":6081,"성장":6082,"세로":6083,"소득":6084,"스퍼":6085,"시켰":6086,"신을":6087,"심을":6088,"아의":6089,"아버지":6090,"았던":6091,"았고,":6092,"어에":6093,"에선":6094,"연대":6095,"였으나":6096,"오는":6097,"유럽":6098,"율은":6099,"음에":6100,"이론":6101,"이치로":6102,"임이":6103,"자에게":6104,"정은":6105,"제,":6106,"주로":6107,"지와":6108,"처리":6109,"축에":6110,"출판":6111,"타리":6112,"텐츠":6113,"트에서":6114,"틀러":6115,"판,":6116,"평균":6117,"플레이":6118,"하이":6119,"한,":6120,"함수는":6121,"했는데":6122,"협회":6123,"환으로":6124,"후보":6125,"훼손":6126,"히려":6127,"▁이날":6128,"▁이들의":6129,"▁이므로,":6130,"▁대우":6131,"▁수송":6132,"▁수여":6133,"▁수요":6134,"▁수사를":6135,"▁사는":6136,"▁정식":6137,"▁한때":6138,"▁한정":6139,"▁한족":6140,"▁한민족":6141,"▁한겨레":6142,"▁가격":6143,"▁가깝":6144,"▁가는":6145,"▁가상":6146,"▁기사,":6147,"▁전용":6148,"▁일꾼":6149,"▁공급":6150,"▁지리":6151,"▁지상":6152,"▁시험":6153,"▁시리즈":6154,"▁중도":6155,"▁제어":6156,"▁유닉":6157,"▁유아":6158,"▁유행":6159,"▁유효":6160,"▁아랍":6161,"▁아시안":6162,"▁인민":6163,"▁노사":6164,"▁주관":6165,"▁주된":6166,"▁주제":6167,"▁보장":6168,"▁방식":6169,"▁경성":6170,"▁조화":6171,"▁모듈":6172,"▁모여":6173,"▁모음":6174,"▁나왔다.\r\n":6175,"▁연세대":6176,"▁국립":6177,"▁발명":6178,"▁여의":6179,"▁여부를":6180,"▁개별":6181,"▁개신":6182,"▁상수는":6183,"▁부시":6184,"▁분쟁":6185,"▁사용해":6186,"▁원의":6187,"▁원자가":6188,"▁원점을":6189,"▁\"R":6190,"▁고등":6191,"▁동위":6192,"▁300":6193,"적으로,":6194,"▁않을":6195,"▁도달":6196,"▁도로":6197,"▁성과":6198,"▁성과를":6199,"▁세기":6200,"▁세이":6201,"▁'노":6202,"▁'이":6203,"▁해는":6204,"▁해도":6205,"▁불이":6206,"▁오랫동안":6207,"▁오히려":6208,"▁반도":6209,"▁반영":6210,"▁내외":6211,"▁현실":6212,"▁생긴":6213,"▁단편":6214,"▁무게":6215,"▁무시":6216,"▁변수":6217,"▁변을":6218,"▁없어":6219,"▁없을":6220,"▁스톨":6221,"▁스테이":6222,"▁노무현에게":6223,"▁마찰":6224,"▁많아":6225,"▁59":6226,"▁거대":6227,"▁거절":6228,"▁각속도":6229,"▁설득":6230,"▁설이":6231,"▁설계를":6232,"▁20일":6233,"▁받을":6234,"▁49":6235,"▁4일":6236,"▁예로":6237,"▁우선":6238,"▁우치":6239,"▁일본어를":6240,"▁말이":6241,"▁말해":6242,"▁말미암":6243,"▁바늘":6244,"▁바젤":6245,"▁운동의":6246,"▁강남":6247,"▁강입":6248,"▁역임":6249,"▁평안":6250,"▁파악":6251,"▁차원의":6252,"▁알렉":6253,"▁알파":6254,"▁알베르트":6255,"▁공간과":6256,"▁남쪽":6257,"▁출연":6258,"▁명을":6259,"▁집합과":6260,"▁적어도":6261,"▁회로":6262,"▁크기가":6263,"▁크기는":6264,"▁행위를":6265,"▁정의되는":6266,"▁시작한":6267,"▁시작으로":6268,"▁시작한다.\r\n":6269,"▁복귀":6270,"▁복용":6271,"▁확정":6272,"▁속도로":6273,"▁화강":6274,"▁직무":6275,"▁가지며,":6276,"▁것이라는":6277,"되었는데,":6278,"▁미국에서":6279,"▁매일":6280,"▁이용한다.\r\n":6281,"▁음수가":6282,"▁사람들에게":6283,"▁수학을":6284,"이라고도":6285,"▁문제의":6286,"▁산맥":6287,"▁존재한다고":6288,"▁삼중":6289,"▁삼았다.\r\n":6290,"▁배경":6291,"▁배틀넷":6292,"▁국가는":6293,"▁국가인":6294,"▁이론에":6295,"▁이론이":6296,"▁점유":6297,"▁새벽":6298,"▁벡터를":6299,"▁근을":6300,"▁이를테":6301,"▁세계대":6302,"▁표현한":6303,"▁표현하는":6304,"베르크":6305,"▁이루고":6306,"▁formula_36":6307,"▁formula_3라고":6308,"▁코시":6309,"▁양자화":6310,"▁사건에":6311,"▁사건으로":6312,"▁항목":6313,"▁포함된":6314,"▁포함하지":6315,"▁formula_44":6316,"▁formula_48":6317,"▁1976년":6318,"▁12일":6319,"▁사회진화":6320,"▁1942년":6321,"▁1943년":6322,"▁1947년":6323,"▁주장이":6324,"▁18일":6325,"▁1960년":6326,"▁형태는":6327,"▁박사":6328,"▁피해를":6329,"▁지역을":6330,"▁법칙이":6331,"▁폴링이":6332,"▁중심의":6333,"▁위키백과가":6334,"▁국민통합":6335,"▁표기한":6336,"▁민중":6337,"다\"며":6338,"▁청계":6339,"▁갖추":6340,"▁창설":6341,"보다도":6342,"▁완벽":6343,"▁설명하는":6344,"▁힘은":6345,"▁결과는":6346,"▁대부분을":6347,"▁기술을":6348,"▁기술이":6349,"▁발표된":6350,"▁디스크":6351,"다.\"라고":6352,"▁1959년":6353,"▁1958년":6354,"▁1952년":6355,"▁1953년":6356,"▁PC를":6357,"▁토끼":6358,"▁뒤에":6359,"▁다양하다.\r\n":6360,"▁자신들의":6361,"▁지지하는":6362,"▁비판했다.\r\n":6363,"▁처음에는":6364,"▁물리학과":6365,"▁물리학상을":6366,"▁않는다고":6367,"▁탄생":6368,"▁탄소":6369,"▁용어를":6370,"▁formula_61":6371,"▁formula_6는":6372,"▁플로":6373,"이라면":6374,"▁1930년":6375,"▁1933년":6376,"▁구글의":6377,"▁IMF":6378,"이었으나":6379,"▁사실이":6380,"▁만족한다.\r\n":6381,"▁했으며,":6382,"▁formula_53":6383,"▁조사한":6384,"▁조선일보의":6385,"▁연산자를":6386,"▁맞아":6387,"▁심리":6388,"▁초기에":6389,"▁초기의":6390,"▁172":6391,"▁메이":6392,"▁천연":6393,"▁속도는":6394,"▁1917년":6395,"▁자료의":6396,"▁전쟁을":6397,"▁선거에":6398,"▁좌우":6399,"▁좌파":6400,"▁헌정":6401,"▁필요가":6402,"▁KK":6403,"▁내용은":6404,"▁글루":6405,"▁담고":6406,"▁정책이":6407,"▁터미":6408,"▁통계학은":6409,"▁브라우":6410,"▁일본어의":6411,"▁원주율이":6412,"▁히틀러":6413,"함수이다.\r\n":6414,"▁대수학의":6415,"▁양자역학에서":6416,"▁가정하면":6417,"▁노벨상":6418,"▁들고":6419,"▁고전역학":6420,"▁운동량은":6421,"▁빛을":6422,"▁이전에":6423,"으로서의":6424,"▁유명하다.\r\n":6425,"▁앙카라를":6426,"▁대상이":6427,"▁애국가를":6428,"▁한반도의":6429,"▁해당하는":6430,"▁분류된다.\r\n":6431,"▁로봇은":6432,"▁로봇이":6433,"▁폭력":6434,"▁밖의":6435,"▁그렇지":6436,"▁방향을":6437,"▁변환을":6438,"▁열린우리":6439,"▁빠른":6440,"▁나라의":6441,"▁출신의":6442,"▁곳에서":6443,"▁폐지":6444,"▁유일하게":6445,"▁Re":6446,"▁정상회담":6447,"▁불리게":6448,"▁불가능하다.\r\n":6449,"▁행동을":6450,"▁전통적인":6451,"▁르네":6452,"▁흔들":6453,"▁이야기를":6454,"▁전하를":6455,"▁상호작용을":6456,"▁지속적으로":6457,"▁기호는":6458,"▁구분된다.\r\n":6459,"▁라이선스를":6460,"▁쿼크와":6461,"▁니콜":6462,"▁어려운":6463,"방송,":6464,"▁애플리케이션":6465,"▁DNS":6466,"▁보손은":6467,"▁화합물":6468,"▁간첩사건,":6469,"▁페르시아":6470,"▁기여를":6471,"▁기존의":6472,"▁과거에는":6473,"▁가까운":6474,"▁갈등이":6475,"▁옥스퍼":6476,"▁기온은":6477,"▁정주영은":6478,"▁지도자":6479,"▁조지아":6480,"▁저장된":6481,"▁CPU":6482,"▁왜냐":6483,"달러를":6484,"▁독자적인":6485,"▁근삿값":6486,"▁짝수":6487,"스러운":6488,"▁문재인":6489,"▁식민지":6490,"▁삽입":6491,"▁주어졌을":6492,"▁엄청난":6493,"펜하겐":6494,"▁대대적으로":6495,"▁가타카나":6496,"▁주한미":6497,"▁청소년":6498,"▁라이프니츠":6499,"▁다이슨은":6500,"▁하우스도르프":6501,"▁혼자서":6502,"▁렙톤":6503,"▁아카데미":6504,"▁오스트리아":6505,"engine":6506,"▁촛불":6507,"▁말미암아":6508,"##":6509,",0":6510,",1":6511,"1,":6512,"10":6513,"30":6514,"3만":6515,"</":6516,"^2":6517,"ac":6518,"am":6519,"id":6520,"it":6521,"ion":6522,"od":6523,"ol":6524,"ot":6525,"ow":6526,"pu":6527,"un":6528,"us":6529,"·전":6530,"’는":6531,"▁+":6532,"▁Y":6533,"▁k":6534,"▁r":6535,"▁’":6536,"▁겐":6537,"▁곤":6538,"▁궤":6539,"▁닮":6540,"▁듣":6541,"▁런":6542,"▁멘":6543,"▁뫼":6544,"▁봄":6545,"▁빗":6546,"▁셋":6547,"▁싱":6548,"▁쌓":6549,"▁웨":6550,"▁찍":6551,"▁첼":6552,"▁칭":6553,"▁쾰":6554,"▁쿨":6555,"▁핸":6556,"▁훗":6557,"▁힉":6558,"▁힐":6559,"▁멤버":6560,"》가":6561,"」,":6562,"가위":6563,"각을":6564,"간첩":6565,"간조선":6566,"강점":6567,"거리":6568,"고등":6569,"고라스":6570,"공으로":6571,"구로":6572,"국과":6573,"국어":6574,"국제":6575,"기록":6576,"기까지":6577,"뉴스":6578,"능력":6579,"다며":6580,"다:\r\n":6581,"다르타":6582,"대통령":6583,"데이터":6584,"도에서":6585,"동을":6586,"동의":6587,"두에":6588,"들,":6589,"디빌":6590,"라마":6591,"러리":6592,"러스":6593,"런츠":6594,"레스":6595,"렉터":6596,"련의":6597,"례가":6598,"루스":6599,"리즘":6600,"문이":6601,"문자":6602,"물과":6603,"물로":6604,"민정":6605,"백만":6606,"버그":6607,"법이":6608,"보고":6609,"북도":6610,"분이":6611,"비전":6612,"비사이드":6613,"사이":6614,"산·":6615,"산과":6616,"석이":6617,"성애":6618,"세히":6619,"소,":6620,"스럽":6621,"스타":6622,"습니":6623,"시민":6624,"신은":6625,"신의":6626,"실한":6627,"실험":6628,"안과":6629,"안에":6630,"안정":6631,"어인":6632,"었다고":6633,"에르":6634,"에너지":6635,"역은":6636,"연히":6637,"였고":6638,"였으며,":6639,"유예":6640,"율이":6641,"으면서":6642,"음과":6643,"음에도":6644,"의적으로":6645,"이프":6646,"인들의":6647,"일으":6648,"자나":6649,"재로":6650,"전과":6651,"전철":6652,"절을":6653,"접하는":6654,"정이":6655,"정에서":6656,"정이다.\r\n":6657,"정리를":6658,"조사":6659,"조직":6660,"족이":6661,"중이다.\r\n":6662,"중공업":6663,"증을":6664,"지검":6665,"지원":6666,"지태":6667,"지기도":6668,"차를":6669,"침을":6670,"클리":6671,"킨다.\r\n":6672,"테르":6673,"특한":6674,"티브":6675,"판은":6676,"판을":6677,"하라":6678,"학에서,":6679,"한다.":6680,"함과":6681,"함수를":6682,"해주":6683,"해지는":6684,"해졌다.\r\n":6685,"햇볕":6686,"했지만,":6687,"행동":6688,"헝가":6689,"헬름":6690,"현·":6691,"호가":6692,"호는":6693,"화학은":6694,"회견":6695,"▁이화":6696,"▁이라는":6697,"▁이므로":6698,"▁이스탄":6699,"▁대구":6700,"▁대출":6701,"▁대회":6702,"▁대학의":6703,"▁대기업":6704,"에서만":6705,"▁수밖에":6706,"▁사랑":6707,"▁사슬":6708,"▁정량":6709,"▁정복":6710,"▁정사각":6711,"▁다룰":6712,"▁다섯":6713,"▁다소":6714,"▁다케시마":6715,"▁가게":6716,"▁가공":6717,"▁가서":6718,"▁가출":6719,"▁가졌다.\r\n":6720,"▁기대":6721,"▁기울":6722,"▁기체":6723,"▁2개의":6724,"▁전산":6725,"▁일었다.\r\n":6726,"▁일대에":6727,"▁일련의":6728,"▁공무":6729,"▁공원":6730,"▁공작":6731,"▁공포":6732,"▁공학적":6733,"▁공격을":6734,"▁공로로":6735,"▁하락":6736,"▁하에":6737,"▁하에서":6738,"▁하면서":6739,"▁지내":6740,"▁자전":6741,"▁시계":6742,"▁시설":6743,"▁시위":6744,"▁시청":6745,"▁시위를":6746,"▁등도":6747,"▁중세":6748,"▁중에는":6749,"▁중력을":6750,"▁것\"이라고":6751,"하였던":6752,"▁제거":6753,"▁유력":6754,"▁유출":6755,"▁유치":6756,"▁아는":6757,"▁아파":6758,"▁인용":6759,"▁주요한":6760,"▁보내":6761,"▁보인":6762,"▁보편":6763,"▁보이고":6764,"▁보디빌":6765,"▁방사":6766,"▁방식은":6767,"▁방식이":6768,"▁구텐":6769,"▁구간의":6770,"▁경기":6771,"▁비리":6772,"▁비밀":6773,"▁비행":6774,"▁대한항공":6775,"▁조카":6776,"▁모임":6777,"▁모스크":6778,"▁나가":6779,"▁연맹":6780,"▁연분":6781,"▁연설":6782,"▁국방":6783,"▁발발":6784,"▁문법":6785,"▁개방":6786,"▁상한":6787,"▁상대로":6788,"▁상미분":6789,"▁관여":6790,"▁부피":6791,"▁분모":6792,"▁분할":6793,"▁실린":6794,"▁소리":6795,"▁소위":6796,"▁소추":6797,"▁소형":6798,"▁통계를":6799,"▁사용하기":6800,"▁사용하지":6801,"▁사용자의":6802,"▁원형":6803,"▁원자의":6804,"▁\"f":6805,"▁\"n":6806,"▁고위":6807,"▁동경":6808,"▁동등":6809,"▁동맹":6810,"▁동원":6811,"▁동작":6812,"▁선생":6813,"▁않기":6814,"▁도전":6815,"▁도서관":6816,"▁후인":6817,"▁세포":6818,"▁세상을":6819,"▁해밀":6820,"▁계층":6821,"▁불거":6822,"▁불만을":6823,"▁반쿼":6824,"▁영점":6825,"▁내장":6826,"▁내부의":6827,"▁생존":6828,"▁양국":6829,"▁무료로":6830,"▁없기":6831,"▁마침":6832,"▁마크":6833,"▁5일":6834,"▁각을":6835,"▁각도는":6836,"▁각지에서":6837,"▁최저":6838,"▁받기도":6839,"▁42":6840,"▁대한민국이":6841,"▁대한민국에는":6842,"▁예방":6843,"▁초래":6844,"▁추도":6845,"▁진공":6846,"▁일본,":6847,"▁일본에서":6848,"▁일본어는":6849,"▁말았다.\r\n":6850,"▁바깥":6851,"▁강수":6852,"▁강하게":6853,"▁신석":6854,"▁파견":6855,"▁파울":6856,"▁차가":6857,"▁차원":6858,"▁차이를":6859,"▁알게":6860,"▁되지":6861,"▁입자로":6862,"▁공간이":6863,"▁공간이라고":6864,"▁출입":6865,"▁출현":6866,"▁포괄":6867,"▁독특한":6868,"▁명이":6869,"▁명제":6870,"▁명으로":6871,"▁재배":6872,"▁교류":6873,"▁교정":6874,"▁교수는":6875,"▁방정식,":6876,"▁방정식이":6877,"▁집합론":6878,"▁적합":6879,"▁크다.\r\n":6880,"▁크기와":6881,"▁정의된":6882,"▁정의하는":6883,"▁장관":6884,"▁장학":6885,"▁프로세":6886,"▁로스":6887,"▁로켓":6888,"▁로런츠":6889,"▁학살":6890,"▁학위를":6891,"▁화학의":6892,"▁것이며,":6893,"되었으나,":6894,"되었는데":6895,"▁미국은":6896,"▁함수로":6897,"▁함수\r\n":6898,"▁이용하면":6899,"▁이용해서":6900,"▁음의":6901,"▁논의":6902,"▁안기":6903,"▁컴퓨터에":6904,"▁수학은":6905,"▁존재를":6906,"학교를":6907,"학교에":6908,"▁정부에서":6909,"▁하는데,":6910,"▁열어":6911,"▁점령":6912,"▁점점":6913,"▁점으로":6914,"▁formula_2의":6915,"▁요약":6916,"▁요소를":6917,"▁저명한":6918,"▁벡터는":6919,"▁근무":6920,"▁근사":6921,"6년에":6922,"▁세계의":6923,"▁식에서":6924,"▁달에":6925,"▁1985년":6926,"▁표현될":6927,"▁표현의":6928,"▁표현되는":6929,"▁formula_32":6930,"▁formula_33":6931,"▁formula_34":6932,"▁formula_38":6933,"▁formula_3는":6934,"▁코펜하겐":6935,"▁처벌":6936,"▁편찬":6937,"▁편미분":6938,"▁얻는":6939,"▁얻은":6940,"▁합의":6941,"▁총무":6942,"▁사건과":6943,"▁항을":6944,"▁항의":6945,"▁폴란드":6946,"▁1978년":6947,"▁1972년":6948,"▁여기에서":6949,"▁공식이":6950,"▁못한다.\r\n":6951,"▁전자를":6952,"▁주장하였다.\r\n":6953,"▁CD":6954,"▁방법에":6955,"▁1963년":6956,"▁형태가":6957,"▁과학은":6958,"▁지역에":6959,"▁법칙,":6960,"▁중심이":6961,"▁가능하며,":6962,"▁게임,":6963,"▁11일":6964,"▁국민은":6965,"▁판문":6966,"다\"라는":6967,"다\"라며":6968,"▁청나라":6969,"▁정보의":6970,"▁창제":6971,"▁호남":6972,"▁발전에":6973,"▁개발에":6974,"▁화학자":6975,"시키기":6976,"시키지":6977,"▁충격":6978,"▁충족":6979,"▁충청":6980,"▁기술하는":6981,"▁독일어":6982,"가지의":6983,"▁카스":6984,"▁증명은":6985,"▁뒤인":6986,"▁브리":6987,"다가,":6988,"▁의미가":6989,"▁시대부터":6990,"▁권력":6991,"▁비판하였다.\r\n":6992,"▁금강":6993,"▁시간을":6994,"▁경제적":6995,"▁일부는":6996,"▁탄젠":6997,"▁용도로":6998,"▁복소평":6999,"▁5월에는":7000,"▁제17":7001,"▁제공되는":7002,"▁뜻이다.\r\n":7003,"▁1920년":7004,"▁1932년":7005,"▁승인":7006,"▁변화에":7007,"▁뉴스":7008,"▁돌고":7009,"▁formula_58":7010,"▁원소의":7011,"▁언론에":7012,"▁맞는":7013,"▁문화를":7014,"▁심지어":7015,"▁계속해서":7016,"▁초기에는":7017,"▁책에서":7018,"▁메시":7019,"▁결합이":7020,"▁결합하여":7021,"▁인터넷의":7022,"▁DR":7023,"▁DOS":7024,"▁평가했다.\r\n":7025,"▁속도의":7026,"▁이어져":7027,"▁자료에":7028,"▁전쟁으로":7029,"▁결정하는":7030,"▁Korea":7031,"▁MBC":7032,"▁범위":7033,"▁사망한":7034,"▁급증":7035,"▁급수는":7036,"▁앞에":7037,"▁정책에":7038,"▁정책으로":7039,"▁중앙일보":7040,"▁번째로":7041,"▁등장한다.\r\n":7042,"▁이루어지는":7043,"▁준공":7044,"▁준다.\r\n":7045,"▁설립한":7046,"▁추가로":7047,"▁왕복":7048,"▁원주율의":7049,"▁언어로":7050,"▁증가하는":7051,"▁들면":7052,"▁도시철":7053,"▁서버가":7054,"▁커널이":7055,"▁파동의":7056,"▁앙카라의":7057,"▁기반의":7058,"▁인정하는":7059,"▁대학교에서":7060,"▁정리한":7061,"▁대응하는":7062,"▁아이작":7063,"▁단일형":7064,"▁단일화를":7065,"▁프랙탈의":7066,"▁귀국":7067,"▁제국에":7068,"▁불교가":7069,"▁불교를":7070,"▁헤르":7071,"▁헤만":7072,"▁물체를":7073,"▁날씨":7074,"▁퍼져":7075,"▁각운동량을":7076,"▁NT":7077,"▁놀라":7078,"▁놀이":7079,"▁관측값에서":7080,"▁빌헬름":7081,"▁손으로":7082,"▁해결하기":7083,"▁졸업한":7084,"▁열린집합":7085,"▁군사정":7086,"enc":7087,"▁현상이":7088,"▁측정할":7089,"▁잡지":7090,"▁formula_9는":7091,"▁색을":7092,"▁하였으나":7093,"▁암살":7094,"▁캠프":7095,"▁이루어진다.\r\n":7096,"▁허가서는":7097,"▁HP":7098,"▁느끼":7099,"▁느낀":7100,"▁부르는":7101,"▁확인했다.\r\n":7102,"▁지금까지":7103,"▁않았던":7104,"▁당선되었다.\r\n":7105,"▁깊이":7106,"마스터":7107,"▁읽는다.\r\n":7108,"▁일어난":7109,"▁아미노산은":7110,"▁국회가":7111,"▁불리기도":7112,"▁마찬가지로,":7113,"▁머리":7114,"▁머물":7115,"▁제기되었다.\r\n":7116,"▁윤치호의":7117,"▁답변":7118,"▁주변의":7119,"▁취임하였다.\r\n":7120,"ath":7121,"ist":7122,"국민회의":7123,"▁효과가":7124,"▁UN":7125,"▁결혼했다.\r\n":7126,"▁계승한":7127,"▁생물학":7128,"▁논쟁을":7129,"▁공유결합":7130,"▁유용하게":7131,"▁특수한":7132,"▁저작권":7133,"▁무엇인":7134,"▁대한제국을":7135,"▁분향소":7136,"▁본격적으로":7137,"전하를":7138,"정책을":7139,"▁연방의":7140,"▁명예회":7141,"▁27일":7142,"▁공산주의":7143,"▁육군":7144,"▁홈으로":7145,"▁공화당":7146,"▁3.141":7147,"▁불러일으":7148,"▁오른쪽":7149,"▁1995년에":7150,"▁더불어민주당":7151,"▁프로토스의":7152,"▁안익태의":7153,"▁자원봉":7154,"▁펼쳐":7155,"고라스의":7156,"▁31일":7157,"▁변인:":7158,"▁책임이":7159,"▁엄밀한":7160,"▁DNA의":7161,"▁분명히":7162,"-아인슈타인":7163,"▁피타고라스":7164,"▁피타고라스의":7165,"▁퍼포먼스":7166,"▁거듭제곱":7167,"자리까지":7168,"▁자택에서":7169,"▁비가산":7170,"▁적절한":7171,"▁십진":7172,"▁지닌다.\r\n":7173,"▁스크린":7174,"▁네이피":7175,"▁일대일":7176,"▁경상남도":7177,"▁실시간으로":7178,"▁크롤링":7179,"▁업그레이드":7180,"▁싯다르타":7181,"▁\"b\"":7182,"▁노동인권을":7183,"▁인터뷰에서":7184,"▁텔레비전":7185,"백산맥":7186,"▁국민통합21":7187,"▁멘델":7188,"▁뫼비":7189,"▁훗날":7190,"국제공항":7191,"▁이스탄불":7192,"▁모스크바":7193,"\"과":7194,"\"를":7195,"\"이":7196,"'고":7197,"-2":7198,"-5":7199,"19":7200,"4대":7201,"6만":7202,"7\r\n":7203,"800":7204,"DL":7205,"S/2":7206,"TT":7207,"ik":7208,"’을":7209,"’의":7210,"▁)":7211,"▁a":7212,"▁f":7213,"▁갑":7214,"▁굴":7215,"▁까":7216,"▁늦":7217,"▁딴":7218,"▁멈":7219,"▁뮤":7220,"▁뷰":7221,"▁쏟":7222,"▁엑":7223,"▁율":7224,"▁융":7225,"▁층":7226,"▁킬":7227,"▁횡":7228,"▁훌":7229,"▁흘":7230,"▁쪽으로":7231,"▁햇볕":7232,"가로":7233,"각한":7234,"값의":7235,"강의":7236,"개로":7237,"게누":7238,"겠다는":7239,"계와":7240,"고기":7241,"고등학교":7242,"공식":7243,"관계를":7244,"국통일":7245,"군과":7246,"규칙":7247,"그램":7248,"금은":7249,"금이":7250,"기서":7251,"까?\r\n":7252,"나톨":7253,"놓은":7254,"단과":7255,"당,":7256,"대는":7257,"데타":7258,"도서관":7259,"독으로":7260,"동·":7261,"동은":7262,"동하는":7263,"들여":7264,"들이다.\r\n":7265,"등록":7266,"등포":7267,"디어를":7268,"라메":7269,"러는":7270,"려고":7271,"려면":7272,"로를":7273,"로이":7274,"률을":7275,"리게":7276,"리언":7277,"리치":7278,"릭스":7279,"마저":7280,"마토":7281,"만한":7282,"먼지":7283,"명하게":7284,"무기":7285,"문서":7286,"미와":7287,"미트":7288,"밀한":7289,"받는":7290,"버트":7291,"베리아":7292,"변이":7293,"부에서":7294,"사도":7295,"사령":7296,"사에서는":7297,"사들의":7298,"산부":7299,"산술":7300,"산은":7301,"산의":7302,"산에서":7303,"상봉":7304,"상태":7305,"상하는":7306,"선도":7307,"센터":7308,"술을":7309,"스토":7310,"시설":7311,"시스":7312,"시험":7313,"시했다.\r\n":7314,"신임을":7315,"심이":7316,"아에":7317,"안으로":7318,"암은":7319,"야의":7320,"언어":7321,"언에":7322,"업체":7323,"없는":7324,"었고":7325,"었으나,":7326,"역에서":7327,"연,":7328,"연속":7329,"연의":7330,"영리":7331,"영이":7332,"온은":7333,"요가":7334,"우주":7335,"운영":7336,"원자":7337,"이한":7338,"이면서":7339,"입해":7340,"자료":7341,"자연":7342,"자였던":7343,"장치":7344,"재가":7345,"재한":7346,"전기":7347,"점의":7348,"접한":7349,"정과":7350,"정규":7351,"졌고":7352,"졌을":7353,"종,":7354,"주년":7355,"주었다.\r\n":7356,"준은":7357,"중앙":7358,"지능":7359,"지며":7360,"지며,":7361,"진의":7362,"진으로":7363,"책을":7364,"처를":7365,"청년":7366,"최고":7367,"치,":7368,"친다.\r\n":7369,"카페":7370,"카르트":7371,"커니즘":7372,"코비":7373,"통계":7374,"트라":7375,"파일":7376,"페이":7377,"평양":7378,"폭탄":7379,"표현":7380,"품을":7381,"하하는":7382,"하므로,":7383,"함석헌":7384,"항은":7385,"항을":7386,"해에":7387,"해진다.\r\n":7388,"호선,":7389,"화는":7390,"환을":7391,"▁이호":7392,"▁1개":7393,"▁1천":7394,"▁10년":7395,"▁대동":7396,"▁대항":7397,"▁대화":7398,"▁대학에서":7399,"▁수,":7400,"▁수교":7401,"▁수와":7402,"▁수이다.\r\n":7403,"▁수도를":7404,"▁사과":7405,"▁사찰":7406,"▁그녀":7407,"▁그만":7408,"▁그와":7409,"▁정한":7410,"▁정도가":7411,"▁한계":7412,"▁한양":7413,"▁한계를":7414,"▁한다면":7415,"▁다를":7416,"▁가계":7417,"▁가수":7418,"▁가스":7419,"▁가위":7420,"▁가을":7421,"▁가치가":7422,"▁가위는":7423,"▁가설을":7424,"▁기복":7425,"▁기계를":7426,"▁2위를":7427,"▁전부터":7428,"▁전체의":7429,"▁일컫":7430,"▁일환으로":7431,"▁공공":7432,"▁공과":7433,"▁위협":7434,"▁위기를":7435,"▁위상을":7436,"▁하다가":7437,"▁지명":7438,"▁지은":7439,"▁지위를":7440,"▁지나는":7441,"▁자극":7442,"▁자체는":7443,"▁시,":7444,"▁시기를":7445,"▁시베리아":7446,"▁중계":7447,"▁중소":7448,"▁중인":7449,"▁중일":7450,"▁중이다.\r\n":7451,"▁중점을":7452,"▁것처럼":7453,"하였다.":7454,"하였는데":7455,"▁제7":7456,"▁유린":7457,"▁유의":7458,"▁유학":7459,"▁아마":7460,"▁아타":7461,"▁아트":7462,"▁아들이":7463,"▁인종":7464,"▁주파":7465,"▁주소를":7466,"▁보른":7467,"▁보완":7468,"▁보좌":7469,"▁경남":7470,"▁경향":7471,"▁경호":7472,"▁경계로":7473,"▁비상대":7474,"▁비선형":7475,"▁비영리":7476,"▁조만":7477,"▁조성":7478,"▁조정":7479,"▁모토로":7480,"▁의장":7481,"▁나눌":7482,"▁연대":7483,"▁연세":7484,"▁연소":7485,"▁연행":7486,"▁발산":7487,"▁서방":7488,"▁상상":7489,"▁상자":7490,"▁관해":7491,"▁부근":7492,"▁부담":7493,"▁부채":7494,"▁부처":7495,"▁부친":7496,"▁분배":7497,"▁분지":7498,"▁분자와":7499,"▁때에도":7500,"▁사용하기도":7501,"▁사용자들은":7502,"▁원나라":7503,"▁\"어":7504,"▁미치":7505,"▁미치는":7506,"▁동기":7507,"▁동반":7508,"▁동형":7509,"▁동호회":7510,"▁동성애":7511,"▁3,":7512,"▁3당":7513,"▁3대":7514,"▁3·1":7515,"▁선교":7516,"▁선사":7517,"▁선행":7518,"▁도덕":7519,"▁도움을":7520,"▁성능":7521,"▁성격을":7522,"▁후에도":7523,"▁세력이":7524,"▁세웠다.\r\n":7525,"▁해에":7526,"▁계급":7527,"▁계수":7528,"▁계통":7529,"▁불규칙":7530,"▁오랜":7531,"▁오르":7532,"▁결의":7533,"▁반전":7534,"▁반해":7535,"▁영결":7536,"▁내렸다.\r\n":7537,"▁양을":7538,"▁양이":7539,"▁formula_1를":7540,"▁무료":7541,"▁무역":7542,"▁무효":7543,"▁두드러":7544,"▁어휘":7545,"▁스탠":7546,"▁스프":7547,"▁거두":7548,"▁거시":7549,"▁에도":7550,"▁최대의":7551,"▁20%":7552,"▁특유":7553,"▁대한민국에":7554,"▁대한민국을":7555,"▁예니":7556,"▁예상":7557,"▁예시":7558,"▁예로는":7559,"▁초창":7560,"▁초이는":7561,"▁우간":7562,"▁우승":7563,"▁추대":7564,"▁추론":7565,"▁일본이":7566,"▁말한":7567,"▁경우의":7568,"▁강연":7569,"▁대해,":7570,"▁파업":7571,"▁차수":7572,"▁한국을":7573,"▁되자":7574,"▁되고,":7575,"▁입자를":7576,"▁입장에서":7577,"▁공간,":7578,"▁포갬":7579,"▁포켓":7580,"▁포털":7581,"▁명명":7582,"▁재야":7583,"▁재직":7584,"▁재신임을":7585,"주의와":7586,"주의적":7587,"▁방정식에":7588,"▁집합이":7589,"▁크로":7590,"▁크릭":7591,"▁크기의":7592,"▁크라메":7593,"▁행사":7594,"▁행위":7595,"▁정의하였다.\r\n":7596,"▁외의":7597,"▁장남":7598,"▁장례":7599,"에게서":7600,"▁PS/2":7601,"▁확산":7602,"▁로저":7603,"▁학자들은":7604,"▁법을":7605,"▁직관":7606,"컴퓨팅":7607,"되었다는":7608,"▁위키낱말":7609,"▁연구소":7610,"▁쓰인":7611,"▁서울대":7612,"▁통해,":7613,"▁간섭":7614,"▁간에":7615,"▁간행":7616,"▁음수":7617,"▁음수는":7618,"▁6년":7619,"▁안정":7620,"▁임계":7621,"▁수학과":7622,"▁수학에서":7623,"▁수학적으로":7624,"▁김경":7625,"▁김지태":7626,"▁존재하며,":7627,"▁들어와":7628,"▁데카르트":7629,"▁국가가":7630,"▁국가이다.\r\n":7631,"면,\r\n":7632,"▁이론과":7633,"▁요시":7634,"▁새정치":7635,"▁저격":7636,"▁근처":7637,"▁10만":7638,"▁10분":7639,"1년에":7640,"▁70":7641,"▁75":7642,"▁건너":7643,"▁건물을":7644,"▁자유로운":7645,"▁식별":7646,"▁표현된다.\r\n":7647,"운동으로":7648,"▁리스":7649,"▁양자장":7650,"▁얻고":7651,"▁합은":7652,"▁총학생회":7653,"▁포함되었다.\r\n":7654,"▁포함되어":7655,"▁formula_4를":7656,"▁formula_4에":7657,"▁애도":7658,"▁애틀랜":7659,"▁못하였다.\r\n":7660,"▁1944년":7661,"▁1941년":7662,"▁1946년":7663,"▁주장을":7664,"▁18세기":7665,"▁1965년":7666,"▁과학,":7667,"▁구조가":7668,"▁구조는":7669,"▁구조에":7670,"▁분야를":7671,"▁실험적으로":7672,"▁중심지":7673,"▁온도를":7674,"▁위키백과를":7675,"▁게임의":7676,"▁정치에":7677,"▁표기한다.\r\n":7678,"▁표기법을":7679,"▁관련한":7680,"▁창작":7681,"▁호는":7682,"▁호텔":7683,"▁모두가":7684,"▁문서가":7685,"▁0,":7686,"▁01":7687,"▁0보다":7688,"▁프로그램들은":7689,"▁완간":7690,"▁설명하고":7691,"▁힘들":7692,"▁중국과":7693,"▁화학결합":7694,"시키고,":7695,"▁결과,":7696,"▁결과로":7697,"▁충격을":7698,"▁대부분은":7699,"▁기술의":7700,"▁구성할":7701,"▁성질들을":7702,"▁디렉터":7703,"▁높이":7704,"▁앙페르":7705,"▁1954년":7706,"▁1951년":7707,"▁1956년":7708,"▁카이":7709,"▁규모의":7710,"▁엔지니어":7711,"▁토머스":7712,"▁다양하게":7713,"▁개념이":7714,"▁알려졌다.\r\n":7715,"▁기준계":7716,"▁의미하는":7717,"▁영향으로":7718,"▁참여하였다.\r\n":7719,"▁자신을":7720,"▁시대에":7721,"▁시대에는":7722,"▁있었고":7723,"▁있었다고":7724,"▁있었으나":7725,"▁있었으나,":7726,"▁여기서\r\n":7727,"▁살펴":7728,"▁살았다.\r\n":7729,"▁살리에":7730,"▁일부가":7731,"▁시스템에서":7732,"▁formula_65":7733,"▁플라스":7734,"▁극복":7735,"▁올림":7736,"▁1929년":7737,"▁1927년":7738,"위원회의":7739,"위원회를":7740,"▁상태가":7741,"▁상태를":7742,"▁상태에서":7743,"▁II":7744,"▁IP":7745,"이었으며,":7746,"▁했을":7747,"▁했으나":7748,"▁했지만,":7749,"▁조사에":7750,"▁원소가":7751,"▁나타내면":7752,"▁나타내었다.\r\n":7753,"▁조선일보를":7754,"▁연산자는":7755,"▁러시아어를":7756,"▁계속되어":7757,"▁클러":7758,"▁비롯하여":7759,"▁인터넷에":7760,"▁투자":7761,"▁있어야":7762,"▁SK":7763,"▁업적":7764,"▁속도에":7765,"▁속도와":7766,"▁자료는":7767,"▁전쟁이":7768,"▁첫째":7769,"▁첫번째":7770,"▁협력":7771,"▁협상을":7772,"▁작품은":7773,"▁검찰의":7774,"▁15일에":7775,"▁산업용":7776,"▁4월에":7777,"▁막기":7778,"▁되어,":7779,"▁독립을":7780,"▁분석하는":7781,"▁농촌":7782,"▁농협":7783,"▁앞으로":7784,"▁앞에서":7785,"들과의":7786,"▁패배":7787,"▁기업의":7788,"▁미분을":7789,"▁누군":7790,"▁통계학":7791,"▁오일러가":7792,"▁확장할":7793,"▁민주당은":7794,"▁슈퍼":7795,"▁추가되었다.\r\n":7796,"▁왕조":7797,"▁모형을":7798,"▁진행되었다.\r\n":7799,"▁되었고":7800,"▁되었다고":7801,"함수와":7802,"▁절반":7803,"▁노벨상을":7804,"▁증가하고":7805,"▁헌법에":7806,"▁끝내":7807,"▁이전에는":7808,"▁30여":7809,"▁커널의":7810,"▁발달하여":7811,"▁해석적":7812,"▁상당한":7813,"▁성공을":7814,"▁거리의":7815,"▁프로젝트는":7816,"▁효율":7817,"▁이해를":7818,"▁대응되는":7819,"▁한반도는":7820,"▁아이소":7821,"방정식은":7822,"방정식을":7823,"▁수상자":7824,"▁제국이":7825,"▁통일민주당":7826,"▁통일국민":7827,"▁사용자에게":7828,"▁사용자들의":7829,"가능한":7830,"▁생성되는":7831,"▁날이":7832,"▁폭발":7833,"▁유지하는":7834,"▁반대되는":7835,"▁각운동량의":7836,"▁엔트로피를":7837,"조선일보":7838,"▁L-":7839,"▁방송,":7840,"▁최근에":7841,"▁역사는":7842,"▁역사적으로":7843,"▁받았으며,":7844,"▁루이":7845,"▁면에서":7846,"▁유닛에게":7847,"▁방문했다.\r\n":7848,"▁군사적":7849,"▁잡은":7850,"▁홍보":7851,"▁외교적":7852,"▁좌표계":7853,"▁기초를":7854,"▁보존법칙":7855,"▁설치하여":7856,"▁반응을":7857,"▁곳에":7858,"▁곳곳에서":7859,"▁전개는":7860,"▁휴전":7861,"▁제곱근":7862,"▁방언이":7863,"▁부르며,":7864,"▁부르기도":7865,"▁달러에":7866,"▁가리킨다.\r\n":7867,"▁일으켜":7868,"▁않았고,":7869,"▁formula_13의":7870,"▁망델브로":7871,"▁몰락":7872,"▁몰아":7873,"ical":7874,"▁쓴다.\r\n":7875,"▁아미노산이":7876,"▁특징이":7877,"▁학문이다.\r\n":7878,"▁북한의":7879,"▁조선민주주의인민공화국을":7880,"▁움직임":7881,"▁스타크래프트의":7882,"▁적분은":7883,"▁1905년":7884,"▁일제강점":7885,"▁근대적":7886,"ant":7887,"▁답을":7888,"▁칼리":7889,"▁칼텍":7890,"▁22일":7891,"▁합성곱":7892,"▁난징":7893,"▁잠실":7894,"▁이주했다.\r\n":7895,"▁이주노동":7896,"▁생활을":7897,"▁종교적":7898,"▁따라서,\r\n":7899,"▁지지율은":7900,"▁실시한":7901,"▁이외의":7902,"▁한글은":7903,"▁논문에서":7904,"물리학":7905,"▁기하학적":7906,"▁영역에서":7907,"▁여름에":7908,"▁여름에는":7909,"▁운행을":7910,"▁차례의":7911,"▁한나라당의":7912,"스포르,":7913,"▁정규분포":7914,"▁인천국제공항":7915,"▁추상화":7916,"▁알아낼":7917,"▁혁신":7918,"▁자리잡":7919,"▁분향소를":7920,"▁시각도":7921,"▁단백질의":7922,"▁떨어져":7923,"▁일종의":7924,"▁함석헌은":7925,"▁함석헌이":7926,"▁긴급":7927,"▁워드":7928,"활동을":7929,"▁작곡가":7930,"stat":7931,"▁OEC":7932,"▁소립자의":7933,"▁500만":7934,"▁질문에":7935,"▁왼손":7936,"▁쿠데타":7937,"▁티베":7938,"▁둘러싼":7939,"▁쇼핑":7940,"▁기자회견":7941,"▁구체적인":7942,"▁밀러의":7943,"▁궁극":7944,"세계대백과사전":7945,"▁나누어":7946,"▁젊은이":7947,"▁이적단체로":7948,"▁주지사":7949,"▁삶을":7950,"▁반지름":7951,"▁반지름이":7952,"▁양변에":7953,"▁권한을":7954,"▁권양숙이":7955,"▁급격히":7956,"▁견해가":7957,"▁닫힌":7958,"▁혜택":7959,"광역시":7960,"▁대다수의":7961,"▁오리건":7962,"▁BBS는":7963,"▁아르키메데스는":7964,"▁오스만":7965,"▁획득":7966,"▁공집합이":7967,"▁지니고":7968,"▁유대인":7969,"▁우변의":7970,"▁햄버거":7971,"▁이라크":7972,"▁아민은":7973,"▁또다른":7974,"▁헤이안":7975,"▁왓슨과":7976,"▁꾸준":7977,"▁쟁취":7978,"▁제5공화국":7979,"▁실용적인":7980,"▁소송을":7981,"▁물건을":7982,"▁프랭클":7983,"▁5·16":7984,"▁새누리당":7985,"▁리서치":7986,"▁누피디아":7987,"▁슈워제네거는":7988,"▁유닉스":7989,"▁개신교":7990,"▁이를테면":7991,"▁왜냐하면":7992,"▁주한미군":7993,"▁웨일":7994,"▁쿨롱":7995,"▁힉스":7996,"▁이화춘":7997,"▁보디빌더":7998,"▁구텐베르크":7999,"▁마침내":8000,"▁총무비서관":8001,"▁DR-DOS":8002,"▁뫼비우스":8003,"게누마":8004,"▁크라메르":8005,"▁위키낱말사전":8006,"▁새정치국민회의":8007,"▁OECD":8008,"\"이다.\r\n":8009,"\"이란":8010,"-R":8011,"-50":8012,"/M":8013,"12":8014,"13":8015,"28":8016,"29":8017,"2만":8018,"3대":8019,"5만":8020,"AN":8021,"H-":8022,"IC":8023,"SD":8024,"TS":8025,"ach":8026,"ew":8027,"gle":8028,"ia":8029,"ir":8030,"iv":8031,"ma":8032,"re":8033,"um":8034,"·고":8035,"×U":8036,"’라고":8037,"▁:":8038,"▁α":8039,"▁괄":8040,"▁괵":8041,"▁꺾":8042,"▁넷":8043,"▁닐":8044,"▁됨":8045,"▁득":8046,"▁똑":8047,"▁래":8048,"▁몬":8049,"▁빙":8050,"▁섭":8051,"▁솔":8052,"▁엘":8053,"▁잉":8054,"▁족":8055,"▁짐":8056,"▁짜":8057,"▁찰":8058,"▁켈":8059,"▁탁":8060,"▁탓":8061,"▁팽":8062,"▁펠":8063,"▁힌":8064,"▁8년":8065,"▁훼손":8066,"가이다.\r\n":8067,"각형":8068,"각형의":8069,"간에":8070,"같이":8071,"거래":8072,"거움":8073,"검찰":8074,"겼다.\r\n":8075,"경기":8076,"경에":8077,"경영":8078,"경의":8079,"고속도":8080,"곱의":8081,"과도":8082,"과학자":8083,"관에":8084,"관에서":8085,"교로":8086,"교통":8087,"기소":8088,"기하":8089,"끄럼":8090,"내기":8091,"네시아":8092,"네이터":8093,"년에":8094,"노총":8095,"놀이":8096,"놀이,":8097,"눗셈":8098,"는,":8099,"닙니다.\r\n":8100,"다케시마":8101,"단이":8102,"단협":8103,"단에서":8104,"달을":8105,"대기":8106,"덩어":8107,"데킨":8108,"도·":8109,"동,":8110,"되지만,":8111,"되지는":8112,"드림":8113,"라든":8114,"란을":8115,"러가":8116,"럼을":8117,"레건":8118,"렸을":8119,"렸으며,":8120,"령·":8121,"령을":8122,"론으로":8123,"류에":8124,"류와":8125,"률은":8126,"률이":8127,"륭한":8128,"르의":8129,"리로":8130,"리며":8131,"리인":8132,"리트":8133,"리학":8134,"립된":8135,"링을":8136,"마디":8137,"마키":8138,"머펠":8139,"면의":8140,"면\r\n":8141,"무르":8142,"문,":8143,"문에":8144,"물게":8145,"물에":8146,"미,":8147,"미국의":8148,"바다":8149,"방향":8150,"범위":8151,"법의":8152,"분에":8153,"사고":8154,"사조":8155,"사이다.\r\n":8156,"사들은":8157,"사업을":8158,"서비":8159,"선전":8160,"설·":8161,"성도":8162,"성으로":8163,"셴코":8164,"소했다.\r\n":8165,"수도":8166,"시계":8167,"시스템":8168,"시스턴":8169,"식이다.\r\n":8170,"신,":8171,"신이":8172,"실업":8173,"실의":8174,"실이":8175,"실에서":8176,"심한":8177,"십만":8178,"씨의":8179,"아,":8180,"안보":8181,"알의":8182,"앵카":8183,"야마":8184,"약의":8185,"양자":8186,"어버":8187,"언이":8188,"었지만":8189,"역에":8190,"열반응":8191,"영토":8192,"오르크":8193,"온의":8194,"외교":8195,"요일":8196,"용이":8197,"우가":8198,"워서":8199,"웨덴":8200,"웨이":8201,"유사":8202,"으면,":8203,"음의":8204,"음으로":8205,"의적인":8206,"이거나":8207,"일을":8208,"입자와":8209,"있도록":8210,"자기":8211,"자살":8212,"자이":8213,"자라고":8214,"작으로":8215,"장산술":8216,"재홍":8217,"적·":8218,"적이었다.\r\n":8219,"전,":8220,"전도":8221,"전서":8222,"전한":8223,"점,":8224,"점에":8225,"정,":8226,"정도":8227,"정신":8228,"정지":8229,"제와":8230,"조로":8231,"조와":8232,"조한":8233,"족에":8234,"주인":8235,"주일":8236,"준에":8237,"증으로":8238,"진이":8239,"짐에":8240,"집을":8241,"차의":8242,"최초":8243,"코드":8244,"쿠치":8245,"타이어":8246,"텐셜":8247,"토니":8248,"트롤":8249,"티븐":8250,"티아":8251,"파와":8252,"표로":8253,"풍을":8254,"하의":8255,"하자는":8256,"하나,":8257,"한을":8258,"한의":8259,"해의":8260,"해져":8261,"했기":8262,"했다가":8263,"행정수":8264,"헐리우":8265,"호로":8266,"화학에서":8267,"화학자":8268,"화되기":8269,"▁이기":8270,"▁이란":8271,"▁이룩":8272,"▁이산":8273,"▁이의":8274,"▁이들이":8275,"▁이같은":8276,"▁있으므로":8277,"▁1⁄":8278,"▁1기":8279,"▁1시":8280,"▁1억":8281,"▁1위":8282,"▁1보다":8283,"▁1000":8284,"▁1시간":8285,"▁1천만":8286,"▁대두":8287,"▁대사관":8288,"▁수감":8289,"▁수십":8290,"▁수익":8291,"▁수평":8292,"▁수산화":8293,"▁사원":8294,"▁사유":8295,"▁사칙":8296,"▁그린":8297,"▁그들이":8298,"▁정계":8299,"▁정하고":8300,"▁정리가":8301,"▁한자의":8302,"▁다가":8303,"▁다룬":8304,"▁다비트":8305,"▁가로":8306,"▁가치":8307,"▁가사의":8308,"▁기약":8309,"▁기피":8310,"▁기쿠치":8311,"▁2개":8312,"▁2천":8313,"▁2차원":8314,"▁1900년":8315,"▁전남":8316,"▁전념":8317,"▁전면":8318,"▁전송":8319,"▁전시":8320,"▁전했다.\r\n":8321,"▁일도":8322,"▁일로":8323,"▁일명":8324,"▁일자":8325,"▁일했다.\r\n":8326,"▁일부분":8327,"▁공의":8328,"▁공장":8329,"▁공표":8330,"▁공학과":8331,"▁공헌을":8332,"▁위성":8333,"▁위헌":8334,"▁하던":8335,"▁하자":8336,"▁지칭":8337,"▁지키":8338,"▁지수는":8339,"▁자금":8340,"▁자리를":8341,"▁자체가":8342,"▁시사":8343,"▁시초":8344,"▁시멘트":8345,"▁등,":8346,"▁등이다.\r\n":8347,"▁중부":8348,"▁중시":8349,"▁것인":8350,"▁것에서":8351,"▁것들은":8352,"하였을":8353,"하였다는":8354,"▁제4":8355,"▁제의":8356,"▁제자":8357,"▁제의를":8358,"▁유계":8359,"▁아들로":8360,"▁아나톨":8361,"▁아닙니다.\r\n":8362,"▁인상":8363,"▁노름":8364,"▁노선이":8365,"▁주목":8366,"▁주어":8367,"▁주위":8368,"▁보안":8369,"▁방우":8370,"▁구골":8371,"▁구독":8372,"▁구매":8373,"▁구한다.\r\n":8374,"▁구하기":8375,"▁경부":8376,"▁경선을":8377,"▁경향을":8378,"▁비록":8379,"▁조머펠":8380,"▁의심":8381,"▁의학":8382,"▁의석을":8383,"▁나열":8384,"▁나은":8385,"▁나중":8386,"▁나눗셈":8387,"▁연령":8388,"▁발굴":8389,"▁발족":8390,"▁서사":8391,"▁서서":8392,"▁서정":8393,"▁여당":8394,"▁여운":8395,"▁개를":8396,"▁상관":8397,"▁상륙":8398,"▁상임":8399,"▁상에서":8400,"▁상수가":8401,"▁부가":8402,"▁부상":8403,"▁부활":8404,"▁분기":8405,"▁분위":8406,"▁분자의":8407,"▁분수를":8408,"▁실려":8409,"▁따온":8410,"▁소통":8411,"▁만났":8412,"▁만큼":8413,"▁통틀":8414,"▁사용에":8415,"▁사용이":8416,"▁사용되어":8417,"▁사용자를":8418,"▁사용되지":8419,"▁사용자들이":8420,"▁사용되며,":8421,"▁원내":8422,"▁원을":8423,"▁\"그":8424,"▁\"지":8425,"▁\"한":8426,"▁\"문학":8427,"▁고이":8428,"▁고통":8429,"▁고대의":8430,"▁미리":8431,"▁미적분":8432,"▁동서":8433,"▁물러":8434,"▁물려":8435,"▁물론,":8436,"▁34":8437,"▁3세":8438,"▁30년":8439,"▁3학년":8440,"▁선임":8441,"▁선전":8442,"▁선진":8443,"▁않도록":8444,"▁도발":8445,"▁도봉":8446,"▁도구를":8447,"▁성격":8448,"▁성사":8449,"▁성행":8450,"▁성향":8451,"▁후일":8452,"▁후단협":8453,"▁세대의":8454,"▁함으로써":8455,"▁'한국":8456,"▁해서":8457,"▁해야":8458,"▁계수는":8459,"▁계수를":8460,"▁불렀":8461,"▁오레건":8462,"▁반미":8463,"▁영남":8464,"▁영문":8465,"▁영장":8466,"▁영등포":8467,"▁내의":8468,"▁생태":8469,"▁생어는":8470,"▁생명의":8471,"▁단계":8472,"▁단독":8473,"▁formula_1와":8474,"▁무관":8475,"▁무작":8476,"▁작아":8477,"▁프레":8478,"▁프리기":8479,"▁두루":8480,"▁두산":8481,"▁변하지":8482,"▁변위는":8483,"▁어긋":8484,"▁없다":8485,"▁없애":8486,"▁없고,":8487,"▁없으며,":8488,"▁스캐":8489,"▁스탈":8490,"▁스웨덴":8491,"▁스티븐":8492,"▁마실":8493,"▁마치":8494,"▁마케":8495,"▁많았다.\r\n":8496,"▁56":8497,"▁50여":8498,"▁거세":8499,"▁거리를":8500,"▁거리가":8501,"▁에드":8502,"▁에스":8503,"▁에디터":8504,"▁최병":8505,"▁설은":8506,"▁설정":8507,"▁받기":8508,"▁46":8509,"▁4대":8510,"▁예는":8511,"▁초청":8512,"▁초파":8513,"▁초등학교":8514,"▁추방":8515,"▁추산":8516,"▁진압":8517,"▁일본국":8518,"▁일본에":8519,"▁일본국의":8520,"▁말기":8521,"▁바와":8522,"▁경우를":8523,"▁차단":8524,"▁한국과":8525,"▁한국에서":8526,"▁되며,":8527,"▁입사":8528,"▁입자가":8529,"▁공간으로":8530,"▁공간에서":8531,"▁출산":8532,"▁형식으로":8533,"▁포기":8534,"▁독서":8535,"▁명목":8536,"▁재산":8537,"▁재현":8538,"▁재혼":8539,"주의에":8540,"▁방정식과":8541,"▁방정식\r\n":8542,"▁방정식이라고":8543,"▁집합으로":8544,"▁집합으로서":8545,"▁집합론의":8546,"▁적대":8547,"▁회고":8548,"▁회장에":8549,"▁회장으로":8550,"▁크고":8551,"▁행성의":8552,"▁정의와":8553,"▁시작하면서":8554,"▁장기":8555,"▁장편":8556,"▁장점이":8557,"에게는":8558,"▁Psi":8559,"▁법적":8560,"▁속의":8561,"▁속하는":8562,"▁직업":8563,"▁가지게":8564,"▁가지로":8565,"되었기":8566,"▁언덕":8567,"▁언어는":8568,"▁미국이":8569,"▁함수와":8570,"▁함수해석":8571,"▁매장":8572,"▁쓰고":8573,"▁쓰기":8574,"▁쓰이기":8575,"▁서울역":8576,"▁서울올림픽":8577,"▁간접":8578,"▁음운":8579,"▁6,":8580,"▁60%":8581,"▁안보":8582,"▁안재홍":8583,"▁즉각":8584,"▁컴퓨터와":8585,"▁사람에게":8586,"▁그리고,":8587,"▁김교":8588,"▁김구":8589,"▁김일":8590,"▁김정":8591,"▁김상봉":8592,"▁문제,":8593,"▁약분":8594,"▁들어가":8595,"▁들어갔다.\r\n":8596,"▁들어가는":8597,"▁정부로":8598,"▁데데킨":8599,"▁열을":8600,"▁열벡터":8601,"▁게이":8602,"▁이론으로":8603,"▁이론이다.\r\n":8604,"▁점과":8605,"▁노동자들의":8606,"▁formula_28":8607,"▁formula_29":8608,"▁참전":8609,"▁참패":8610,"▁벡터가":8611,"▁10시":8612,"▁8일":8613,"▁자유낙":8614,"▁자유민주":8615,"▁식물":8616,"▁달리,":8617,"▁광자":8618,"▁자연의":8619,"▁자연수는":8620,"▁자연스러운":8621,"▁formula_3의":8622,"▁리스트":8623,"▁코리아":8624,"▁편입":8625,"▁후보에":8626,"▁후보와":8627,"▁총선":8628,"▁사건은":8629,"▁항은":8630,"▁북서":8631,"▁북쪽":8632,"▁하나를":8633,"▁포함된다.\r\n":8634,"▁1973년":8635,"▁여기에는":8636,"▁90":8637,"▁98":8638,"▁아니라고":8639,"▁공식적으로":8640,"▁태백산맥":8641,"▁감시":8642,"▁목숨":8643,"▁질병":8644,"▁전자,":8645,"▁관계없이":8646,"▁소프트웨어로":8647,"▁민주노동":8648,"▁182":8649,"▁185":8650,"▁지역에서":8651,"▁분야는":8652,"▁분야로":8653,"▁분야에서도":8654,"▁계산하는":8655,"▁온난":8656,"▁현대건설":8657,"▁위키백과에":8658,"▁표기는":8659,"▁청색편":8660,"▁갖지":8661,"▁발전하여":8662,"▁개발되었다.\r\n":8663,"▁문서에":8664,"▁0.0":8665,"▁프로그램은":8666,"▁설명을":8667,"▁설명했다.\r\n":8668,"▁설명한다.\r\n":8669,"▁설명하였다.\r\n":8670,"▁설명하지":8671,"▁성질은":8672,"▁수도가":8673,"▁수도로":8674,"▁한편으로는":8675,"▁1955년":8676,"▁카르":8677,"▁PC의":8678,"▁토론을":8679,"▁뒤,":8680,"▁다양체":8681,"▁의미로":8682,"▁영향력":8683,"▁권장":8684,"▁인터페이":8685,"▁비판도":8686,"▁표준모":8687,"▁표준편":8688,"▁표준적인":8689,"▁경제성장":8690,"로부터의":8691,"▁생각해":8692,"▁시스템은":8693,"▁철거":8694,"▁철회":8695,"▁formula_68":8696,"▁formula_69":8697,"▁과정이":8698,"▁복소수의":8699,"▁밝힌":8700,"▁부분에서":8701,"▁극히":8702,"▁제14대":8703,"▁제13대":8704,"▁1925년":8705,"▁1921년":8706,"▁1938년":8707,"▁1935년":8708,"▁1930년대":8709,"▁상태의":8710,"이었고":8711,"이었다고":8712,"▁돌파":8713,"▁타협":8714,"▁formula_52":8715,"▁formula_59":8716,"▁원소로":8717,"▁나타내기":8718,"▁행렬식을":8719,"▁길을":8720,"▁길이의":8721,"▁연산을":8722,"▁맞이":8723,"▁맞지":8724,"▁채용":8725,"▁문화는":8726,"▁러시아와":8727,"▁심사":8728,"▁책의":8729,"▁책임을":8730,"▁클리":8731,"▁클릭":8732,"▁클라이":8733,"▁대표이":8734,"▁비롯되었다.\r\n":8735,"▁메인":8736,"▁메커니즘":8737,"▁밀접한":8738,"▁formula_70":8739,"▁formula_75":8740,"▁formula_7가":8741,"▁인터넷을":8742,"▁투척":8743,"▁원자력":8744,"▁원자폭탄":8745,"▁질량과":8746,"▁질량의":8747,"▁네덜":8748,"▁은퇴":8749,"▁야기":8750,"▁혼성":8751,"▁자료가":8752,"▁아래와":8753,"▁아래의":8754,"▁만들고,":8755,"▁선거를":8756,"▁결정된다.\r\n":8757,"▁협정을":8758,"▁체제가":8759,"▁체제는":8760,"▁체제로":8761,"▁산업이":8762,"▁개인이":8763,"▁KF":8764,"▁KBS":8765,"▁KETEL":8766,"▁막을":8767,"▁내용의":8768,"▁몇가지":8769,"▁다루지":8770,"▁급수의":8771,"▁둘을":8772,"▁음악에":8773,"▁패망":8774,"▁기업인":8775,"▁미분은":8776,"▁도입한":8777,"▁누가":8778,"▁통계는":8779,"▁작용을":8780,"▁평균을":8781,"▁지방에":8782,"▁지방에서":8783,"▁일본어가":8784,"▁일본어와":8785,"▁회전축":8786,"▁회전하는":8787,"▁확장된":8788,"▁FA":8789,"▁정권이":8790,"▁모형에":8791,"▁발생하는":8792,"▁발생했다.\r\n":8793,"▁동치류":8794,"▁임의로":8795,"▁절댓":8796,"▁보수적인":8797,"▁차지했다.\r\n":8798,"▁차지한다.\r\n":8799,"▁헌법은":8800,"▁헌법을":8801,"▁병진":8802,"▁병합":8803,"▁병원에서":8804,"▁윤보":8805,"▁단위는":8806,"▁받아들이":8807,"▁끝나":8808,"▁끝에":8809,"▁켓을":8810,"▁30일":8811,"▁적용될":8812,"▁노동조합을":8813,"▁B의":8814,"▁기계가":8815,"▁발달한":8816,"▁학생회":8817,"▁학생들이":8818,"▁학생들을":8819,"▁서비스가":8820,"▁기반한":8821,"▁중화학":8822,"▁인정받":8823,"▁인정하지":8824,"▁찾는":8825,"▁상수이다.\r\n":8826,"▁추진한":8827,"▁프로젝트를":8828,"▁귀납":8829,"▁귀향":8830,"▁별도로":8831,"▁수상한":8832,"▁제국은":8833,"▁제국대학":8834,"▁보통은":8835,"▁로봇을":8836,"▁대전이":8837,"▁물체에":8838,"▁퍼텐셜":8839,"▁<chem>":8840,"▁하여,":8841,"▁놀이는":8842,"▁놀이가":8843,"▁최근의":8844,"▁빌려":8845,"▁손을":8846,"▁받았고,":8847,"▁졸업했다.\r\n":8848,"▁루마니아":8849,"▁블랙":8850,"▁악화":8851,"▁백과사전의":8852,"▁백과사전이":8853,"▁그렇다면":8854,"▁유닛을":8855,"▁무리수이다.\r\n":8856,"▁건설,":8857,"▁EEE":8858,"▁빠져":8859,"되면서,":8860,"▁관리,":8861,"▁관리하는":8862,"▁현상에":8863,"▁최고위원":8864,"....":8865,"▁잡혀":8866,"▁좌표를":8867,"▁좌표계에서":8868,"▁좋다.\r\n":8869,"대학교에서":8870,"▁기초로":8871,"▁기초적인":8872,"▁작업이":8873,"▁출판된":8874,"▁출판하였다.\r\n":8875,"▁요구를":8876,"▁돌아왔다.\r\n":8877,"▁캠은":8878,"▁캠퍼":8879,"▁자동으로":8880,"▁보여준":8881,"▁보여주는":8882,"▁구간은":8883,"▁구간을":8884,"▁통신망":8885,"▁재단이":8886,"▁교육을":8887,"▁축구":8888,"▁라플라":8889,"▁떨어진":8890,"▁케네":8891,"▁키예프":8892,"▁제곱에":8893,"▁방언,":8894,"▁죽은":8895,"▁1년을":8896,"▁일으켰":8897,"▁지금도":8898,"▁견습":8899,"▁뿐이다.\r\n":8900,"▁수행할":8901,"▁가속도는":8902,"▁지배하에":8903,"ics":8904,"▁대학에":8905,"▁국회는":8906,"▁송병":8907,"▁푸앵카":8908,"▁오늘날의":8909,"▁붙여":8910,"▁이야기가":8911,"▁다르게":8912,"▁전하의":8913,"▁일제의":8914,"▁배포하는":8915,"▁상호작용의":8916,"▁전해진":8917,"▁주변에는":8918,"▁잠재":8919,"번째로":8920,"▁가족과":8921,"▁문학작품":8922,"▁내적을":8923,"▁유리수체":8924,"▁상황이":8925,"▁박연차의":8926,"▁라이선스":8927,"▁중요하다.\r\n":8928,"▁중요성을":8929,"▁규칙에":8930,"▁떠나":8931,"▁떠났다.\r\n":8932,"법칙에":8933,"▁어려움을":8934,"▁눈에":8935,"▁흑체":8936,"▁기간이":8937,"▁유용한":8938,"▁운행되고":8939,"▁둔다.\r\n":8940,"▁가르치는":8941,"▁노래는":8942,"▁불확실":8943,"▁무엇인지":8944,"▁행정구":8945,"▁핵심적인":8946,"▁[[분류:미국의":8947,"▁혁명":8948,"▁자리에서":8949,"▁대한제국":8950,"▁대한제국의":8951,"▁출마하여":8952,"▁극한을":8953,"▁훈민정":8954,"▁1인당":8955,"▁나온다.\r\n":8956,"▁진영의":8957,"▁목록은":8958,"▁떨어뜨":8959,"▁가까이":8960,"▁21일":8961,"▁인공지능":8962,"▁의견이":8963,"▁의존적":8964,"▁의존한다.\r\n":8965,"▁블리자드는":8966,".25":8967,"ell":8968,"▁잃게":8969,"화학이":8970,"▁기온이":8971,"▁비율은":8972,"▁반면에":8973,"▁출시되었다.\r\n":8974,"▁히라가나는":8975,"▁겪었다.\r\n":8976,"▁꼽힌다.\r\n":8977,"분석,":8978,"▁바람에":8979,"▁법률을":8980,"▁CP/M":8981,"▁왼쪽":8982,"▁품질":8983,"▁사라지고":8984,"▁그림과":8985,"▁않아도":8986,"▁어린이":8987,"▁아쿠타가와는":8988,"▁왜곡":8989,"▁콘서":8990,"▁설문지":8991,"▁확실히":8992,"▁덧셈과":8993,"~19":8994,"▁액체":8995,"▁전반에":8996,"▁보유하고":8997,"▁참고로":8998,"▁저그는":8999,"▁저그의":9000,"▁근삿값을":9001,"▁엄밀히":9002,"▁빚을":9003,"▁이인제":9004,"▁제주도":9005,"▁주민등록":9006,"▁\"노무현":9007,"▁에르빈":9008,"▁에르미트":9009,"▁잇따":9010,"▁이적단체":9011,"▁스위스":9012,"▁진술했다.\r\n":9013,"▁적극적으로":9014,"▁《스타크래프트》는":9015,"▁의사결":9016,"▁강점기":9017,"▁안창호가":9018,"▁업무를":9019,"▁급격하게":9020,"▁닫혀":9021,"▁생명체":9022,"▁편차는":9023,"▁하이젠베르크의":9024,"▁컬러":9025,"▁고정된":9026,"▁'대한민국":9027,"▁키노는":9028,"oogle":9029,"▁꼭짓":9030,"▁이끌었다.\r\n":9031,"▁남상국":9032,"▁열역학적":9033,"▁목소리를":9034,"▁메모리":9035,"▁터치스크":9036,"▁그럼에도":9037,"▁등가속운동":9038,"▁게시판":9039,"▁근본적인":9040,"▁패러데이":9041,"▁LGPL":9042,"▁쉬운":9043,"▁옆에":9044,"▁펜로즈":9045,"▁헨리":9046,"▁텐서곱":9047,"장학회":9048,"▁대의원":9049,"▁주인공":9050,"▁점화식을":9051,"▁랭킹":9052,"▁옹호":9053,"▁튜링":9054,"노가타리":9055,"▁지상파":9056,"▁우치무라":9057,"▁알렉산":9058,"</chem>":9059,"▁런던":9060,"▁셋째":9061,"▁쾰른":9062,"▁핸드":9063,"▁마크업":9064,"▁안기부":9065,"▁판문점을":9066,"▁금강산":9067,"▁탄젠트":9068,"▁자원봉사":9069,"-5E":9070,"▁율리아":9071,"▁훌륭한":9072,"▁흘러":9073,"정규직":9074,"▁아타튀르크":9075,"▁경향신문":9076,"▁비상대론적":9077,"▁특유의":9078,"▁애틀랜타":9079,"▁화학결합에":9080,"statist":9081,"▁티베트":9082,"-ROM":9083,"▁탓에":9084,"▁펠릭스":9085,"▁Psion":9086,"▁푸앵카레":9087,"\"가":9088,"%에":9089,"%이다.\r\n":9090,"'이란":9091,"-B":9092,"-P":9093,"-리우":9094,"1만":9095,"1명":9096,"33":9097,"37":9098,"7,":9099,"78":9100,"AS":9101,"B의":9102,"CA":9103,"FA":9104,"FC":9105,"FDL":9106,"LX":9107,"ML":9108,"SC":9109,"The":9110,"VD":9111,"e,":9112,"m/s":9113,"net":9114,"og":9115,"se":9116,"ul":9117,"x+":9118,"·후":9119,"–켓":9120,"’가":9121,"’에":9122,"’와":9123,"’에서":9124,"’라는":9125,"’이라고":9126,"”라는":9127,"▁`":9128,"▁w":9129,"▁객":9130,"▁꺼":9131,"▁났":9132,"▁낭":9133,"▁낼":9134,"▁닌":9135,"▁던":9136,"▁덮":9137,"▁뤼":9138,"▁맨":9139,"▁며":9140,"▁밟":9141,"▁붉":9142,"▁빵":9143,"▁솟":9144,"▁술":9145,"▁앤":9146,"▁욕":9147,"▁젖":9148,"▁젤":9149,"▁첨":9150,"▁쳐":9151,"▁춤":9152,"▁큐":9153,"▁튀":9154,"▁팬":9155,"▁휘":9156,"▁휩":9157,"▁9년":9158,"▁an":9159,"▁튀르크":9160,"▁헝가":9161,"▁컴퓨팅":9162,"▁헐리우":9163,"》은":9164,"가게":9165,"가다":9166,"가쿠":9167,"가이자":9168,"각이":9169,"각에서는":9170,"간을":9171,"간지의":9172,"간선도":9173,"갑차":9174,"강,":9175,"개혁":9176,"게는":9177,"겠다고":9178,"겨진":9179,"격으로":9180,"결,":9181,"결을":9182,"경과":9183,"경유":9184,"고에":9185,"고자":9186,"공과":9187,"공장":9188,"공학은":9189,"과학,":9190,"관,":9191,"관과":9192,"관으로":9193,"교섭":9194,"교수":9195,"국으로":9196,"군에":9197,"권,":9198,"규하":9199,"그랑":9200,"글로":9201,"기종":9202,"기부터":9203,"나라는":9204,"날레":9205,"났고,":9206,"내에":9207,"내의":9208,"너는":9209,"놀로":9210,"놀리":9211,"누코비":9212,"니커":9213,"다니":9214,"다운":9215,"다윈":9216,"당에서":9217,"당한다.\r\n":9218,"대성":9219,"대백과":9220,"대학에서":9221,"더,":9222,"도선":9223,"도한":9224,"도이다.\r\n":9225,"동맹":9226,"동아":9227,"된다고":9228,"드에":9229,"등과":9230,"디움":9231,"때,":9232,"라와":9233,"라의":9234,"라비아":9235,"랑이":9236,"랫폼":9237,"레인":9238,"레프트":9239,"레이터":9240,"렸다고":9241,"로드":9242,"론적인":9243,"론적으로":9244,"류,":9245,"름은":9246,"름-리우":9247,"리그":9248,"리안":9249,"리어":9250,"리타":9251,"린의":9252,"림,":9253,"림힘":9254,"립의":9255,"마이":9256,"마쿠":9257,"만은":9258,"메리":9259,"명인":9260,"모니":9261,"모와":9262,"모토":9263,"모니아":9264,"무아":9265,"무역":9266,"문에서":9267,"물에서":9268,"미타":9269,"바람":9270,"바르":9271,"바일":9272,"박물":9273,"버스터":9274,"법,":9275,"변을":9276,"병원":9277,"보면":9278,"보통":9279,"복궁":9280,"부수":9281,"부채":9282,"비는":9283,"비례":9284,"비로":9285,"비히":9286,"사범":9287,"사로는":9288,"색,":9289,"색을":9290,"생이":9291,"생인":9292,"서가":9293,"서도":9294,"서의":9295,"석과":9296,"선언":9297,"설,":9298,"설로":9299,"세는":9300,"세한":9301,"세에서":9302,"소포":9303,"소한":9304,"소프트웨어":9305,"속도를":9306,"속도가":9307,"송금":9308,"수궁":9309,"수함":9310,"수산부":9311,"순환":9312,"슬러":9313,"슬라브":9314,"시나":9315,"식회":9316,"싱턴":9317,"아는":9318,"악산":9319,"안의":9320,"았다고":9321,"았으며,":9322,"았으며":9323,"애를":9324,"어내":9325,"어질":9326,"업,":9327,"었으나":9328,"었다가":9329,"었는데":9330,"역,":9331,"였다는":9332,"영,":9333,"예술":9334,"오,":9335,"오스":9336,"왔으며,":9337,"왕은":9338,"외국어":9339,"용,":9340,"용한":9341,"우기":9342,"우나":9343,"음계":9344,"의회":9345,"이게":9346,"이든":9347,"이블":9348,"이상":9349,"이우":9350,"이후":9351,"인들과":9352,"일의":9353,"입니다.\r\n":9354,"자원":9355,"자로서":9356,"작가":9357,"장일":9358,"저장":9359,"적이라고":9360,"적이지":9361,"전문":9362,"절로":9363,"절의":9364,"점과":9365,"점에서":9366,"정연":9367,"제에":9368,"졌지만":9369,"조사에":9370,"족과":9371,"족의":9372,"주식회":9373,"즈는":9374,"즈의":9375,"즈니스":9376,"즐거움":9377,"지상":9378,"지고,":9379,"지로는":9380,"지방법":9381,"진수":9382,"차방정식":9383,"책으로":9384,"척,":9385,"천여":9386,"철에":9387,"체역학":9388,"체제를":9389,"총연맹":9390,"층과":9391,"친목":9392,"카드":9393,"크와":9394,"크놀로":9395,"키의":9396,"타미":9397,"태의":9398,"토론":9399,"튀름-리우":9400,"트르":9401,"트북":9402,"파로":9403,"편마":9404,"평가":9405,"프란":9406,"피레프트":9407,"하자,":9408,"학으로":9409,"학위를":9410,"해와":9411,"해지고":9412,"행을":9413,"협상":9414,"협정":9415,"협회의":9416,"호선":9417,"호에":9418,"호의":9419,"화기":9420,"화하기":9421,"화학의":9422,"화하면":9423,"황과":9424,"황을":9425,"회로":9426,"▁이고":9427,"▁이남":9428,"▁이디":9429,"▁이슈":9430,"▁이웃":9431,"▁이정":9432,"▁이혼":9433,"▁있듯":9434,"▁있기도":9435,"▁있다\"고":9436,"▁있느냐":9437,"▁1이":9438,"▁1주":9439,"▁1세기":9440,"▁1/2":9441,"▁대남":9442,"▁대로":9443,"▁대역":9444,"▁대폭":9445,"▁대학을":9446,"▁대통일":9447,"▁대검찰":9448,"▁수면":9449,"▁수사가":9450,"▁수치가":9451,"▁사영":9452,"▁사임":9453,"▁사저":9454,"▁그곳":9455,"▁그레":9456,"▁그보다":9457,"▁그곳에서":9458,"▁정교":9459,"▁정기":9460,"▁정비":9461,"▁정토":9462,"▁정리는":9463,"▁정식으로":9464,"▁정계에":9465,"▁정해진":9466,"▁한다":9467,"▁한쪽":9468,"▁한자를":9469,"▁한자와":9470,"▁한계가":9471,"▁한사람":9472,"▁가난":9473,"▁기구":9474,"▁기인":9475,"▁기획":9476,"▁기수의":9477,"▁기사와":9478,"▁기점으로":9479,"▁2~":9480,"▁2일":9481,"▁2.\r\n":9482,"▁2.0":9483,"▁전락":9484,"▁전사":9485,"▁전위":9486,"▁전임":9487,"▁전차":9488,"▁전기와":9489,"ular":9490,"▁일은":9491,"▁일찍":9492,"▁공사":9493,"▁공을":9494,"▁공장을":9495,"▁공리가":9496,"▁공정한":9497,"▁공장에서":9498,"▁공기업":9499,"▁공안정":9500,"▁위기":9501,"▁위주의":9502,"▁하늘":9503,"▁하도록":9504,"▁지급":9505,"▁지름":9506,"▁지침":9507,"▁지켜":9508,"▁지냈다.\r\n":9509,"▁지적이":9510,"▁자체를":9511,"▁시가":9512,"▁시삽":9513,"▁시카":9514,"▁시키":9515,"▁등식을":9516,"▁중구":9517,"▁중동":9518,"▁중지":9519,"▁중형":9520,"▁중에서도":9521,"▁중이던":9522,"하였기":9523,"하였다가":9524,"▁제창":9525,"▁제출":9526,"▁제헌":9527,"▁제약을":9528,"▁제치고":9529,"▁유학생":9530,"▁아닐":9531,"▁아산":9532,"▁아스":9533,"▁아우":9534,"▁인왕":9535,"▁인지":9536,"▁노이":9537,"▁노력을":9538,"▁노트북":9539,"▁같아":9540,"▁같다고":9541,"▁주니":9542,"▁주립":9543,"▁주축":9544,"▁보지":9545,"▁보았다.\r\n":9546,"▁보이기":9547,"▁보어의":9548,"▁보내는":9549,"▁방어":9550,"▁방재":9551,"▁방해":9552,"▁구도로":9553,"▁경로":9554,"▁경전":9555,"▁경복궁":9556,"▁비는":9557,"▁비오":9558,"▁비자":9559,"▁비중":9560,"▁비정규직":9561,"▁조절":9562,"▁조치":9563,"▁조국통일":9564,"▁모니":9565,"▁모임을":9566,"▁모놀리":9567,"▁모바일":9568,"▁의식":9569,"▁의외":9570,"▁나는":9571,"▁연간":9572,"▁연금":9573,"▁연봉":9574,"▁연평균":9575,"▁국세":9576,"▁국토":9577,"▁서거":9578,"▁서구":9579,"▁서명":9580,"▁서부":9581,"▁서초":9582,"▁서쪽으로":9583,"▁문인":9584,"▁문장을":9585,"▁여가":9586,"▁여진":9587,"▁개봉":9588,"▁개시":9589,"▁개업":9590,"▁개체":9591,"▁개헌":9592,"▁상위":9593,"▁상응":9594,"▁상좌":9595,"▁상주":9596,"▁부탁":9597,"▁부패":9598,"▁부통령":9599,"▁분과":9600,"▁분노":9601,"▁분자가":9602,"▁분자를":9603,"▁때도":9604,"▁때만":9605,"▁실직":9606,"▁실정이다.\r\n":9607,"▁따름":9608,"▁따서":9609,"▁소재":9610,"▁소식을":9611,"▁소규모":9612,"▁만한":9613,"▁만델브로":9614,"▁사용될":9615,"▁사용을":9616,"▁사용자는":9617,"▁원에":9618,"▁원리가":9619,"▁원인이":9620,"▁\"\"":9621,"▁\"g":9622,"▁\"내":9623,"▁\"도":9624,"▁\"오":9625,"▁\"나는":9626,"▁\"한국":9627,"▁\"a\"":9628,"▁\"statist":9629,"▁고객":9630,"▁고민":9631,"▁고체":9632,"▁고타":9633,"▁미소":9634,"▁미치지":9635,"▁동의":9636,"▁동창":9637,"▁동해":9638,"▁물과":9639,"▁33":9640,"▁39":9641,"▁3개의":9642,"▁3개월":9643,"▁표방":9644,"▁표기를":9645,"▁표트르":9646,"▁선구":9647,"▁선보":9648,"▁선을":9649,"▁않으며,":9650,"▁않으며":9651,"▁도메":9652,"▁도브":9653,"▁도착":9654,"▁도스를":9655,"▁도형의":9656,"▁도플러":9657,"▁성취":9658,"▁성분을":9659,"▁성향을":9660,"▁성향의":9661,"▁후배":9662,"▁후의":9663,"▁후진":9664,"▁세웠":9665,"▁함의":9666,"▁운반":9667,"▁'고":9668,"▁'무":9669,"▁'다케시마":9670,"▁'즐거움":9671,"▁해병":9672,"▁해의":9673,"▁해체":9674,"▁계가":9675,"▁계수가":9676,"▁불안":9677,"▁불렀다.\r\n":9678,"▁오보":9679,"▁오산":9680,"▁결별":9681,"▁결론을":9682,"▁집에서":9683,"▁있는,":9684,"▁있는지":9685,"▁반성":9686,"▁반정부":9687,"▁반비례":9688,"▁영상":9689,"▁영점을":9690,"▁내걸":9691,"▁내에서는":9692,"▁내접하는":9693,"▁생식":9694,"▁생체":9695,"▁생리학":9696,"▁양산":9697,"▁양은":9698,"▁양으로":9699,"▁단행":9700,"▁단어가":9701,"▁단계에서":9702,"▁formula_1-힐베르트":9703,"▁무너":9704,"▁무연":9705,"▁무장":9706,"▁프린":9707,"▁두개의":9708,"▁변이":9709,"▁어원은":9710,"▁어시스턴":9711,"▁없으나":9712,"▁없으나,":9713,"되어,":9714,"▁스튀름-리우":9715,"▁노무현에":9716,"▁마다":9717,"▁마사":9718,"▁마친":9719,"▁51":9720,"▁54":9721,"▁55":9722,"▁57":9723,"▁5공":9724,"▁5천":9725,"▁5.1":9726,"▁50만":9727,"▁5000만":9728,"▁거점":9729,"▁거리는":9730,"▁거기서":9731,"▁거슬러":9732,"▁과목":9733,"▁최악":9734,"▁최규하":9735,"▁20분":9736,"▁특성은":9737,"▁당원":9738,"▁당일":9739,"▁당초":9740,"▁44":9741,"▁48":9742,"▁4년":9743,"▁4.1":9744,"▁40%":9745,"▁예외":9746,"▁초점을":9747,"▁초전하":9748,"▁우호":9749,"▁우위를":9750,"▁우리의":9751,"▁추세":9752,"▁진입":9753,"▁진정":9754,"▁일본은":9755,"▁일본제":9756,"▁일본으로":9757,"▁말이다.\r\n":9758,"▁말에는":9759,"▁바라":9760,"▁바이어":9761,"▁운동과":9762,"▁강행":9763,"▁강제로":9764,"▁대해\r\n":9765,"▁신경":9766,"▁신군":9767,"▁신분":9768,"▁신행정수":9769,"▁역원":9770,"▁역사를":9771,"▁평소":9772,"▁파이":9773,"▁차원은":9774,"▁한국어를":9775,"▁한국전쟁":9776,"▁알타이어":9777,"▁되찾":9778,"▁되는데,":9779,"▁입원":9780,"▁입증":9781,"▁입체":9782,"▁공간들의":9783,"▁나타날":9784,"▁남궁":9785,"▁남동":9786,"▁남방":9787,"▁남한":9788,"▁남기고":9789,"▁형식을":9790,"▁포르":9791,"▁포틀랜":9792,"▁독점":9793,"▁독도를":9794,"▁체육":9795,"▁체코":9796,"▁체계를":9797,"▁체계가":9798,"▁명시":9799,"▁명성을":9800,"▁명제를":9801,"▁재귀":9802,"▁재미":9803,"▁더하기":9804,"▁교체":9805,"▁교향":9806,"▁방정식에서":9807,"▁집합이며,":9808,"▁적지":9809,"▁적색편":9810,"▁회절":9811,"▁회장을":9812,"▁회사가":9813,"▁크즐":9814,"▁행태":9815,"▁정의에서":9816,"▁시작했고,":9817,"▁종결":9818,"▁종동":9819,"▁종목":9820,"▁종속":9821,"▁장국":9822,"▁장르":9823,"▁장면":9824,"▁2019년":9825,"▁복제":9826,"▁복합":9827,"▁PP":9828,"▁법무":9829,"▁법통":9830,"▁속한":9831,"▁직합":9832,"▁가지기":9833,"▁가지지":9834,"▁가지고,":9835,"▁것이다.":9836,"▁것이라든":9837,"되었던":9838,"되었을":9839,"되었지만":9840,"▁미국,":9841,"▁미국을":9842,"▁미국인":9843,"▁미국으로":9844,"▁연구에서":9845,"▁연구한다.\r\n":9846,"▁연구하였다.\r\n":9847,"▁함수에":9848,"▁매각":9849,"▁쓰던":9850,"▁쓰면":9851,"▁쓰이고,":9852,"▁간결":9853,"▁간조의":9854,"▁이용된다.\r\n":9855,"되는데,":9856,"▁음모":9857,"▁음이":9858,"▁음수의":9859,"▁67":9860,"▁논리를":9861,"▁안내":9862,"▁안티":9863,"▁임신":9864,"▁임기를":9865,"▁임기는":9866,"▁컴퓨터로":9867,"▁그리하여":9868,"▁그리스의":9869,"▁김성":9870,"▁김홍":9871,"▁산출":9872,"▁산화":9873,"▁산소를":9874,"▁조선의":9875,"▁삼한":9876,"▁들어서는":9877,"▁데뷔":9878,"▁데이":9879,"▁데에는":9880,"▁데스크":9881,"▁하는데":9882,"▁일반적이다.\r\n":9883,"▁국가에서는":9884,"▁게오르크":9885,"▁이론,":9886,"▁이론적":9887,"▁이론에서":9888,"▁점,":9889,"▁점이다.\r\n":9890,"▁사이언":9891,"▁사이트를":9892,"▁요리":9893,"▁새롭게":9894,"▁저렴":9895,"▁근방":9896,"▁105":9897,"▁8개의":9898,"▁7,":9899,"▁7대":9900,"▁70여":9901,"▁라그랑":9902,"▁자유민주주의":9903,"▁활성":9904,"▁세계에":9905,"▁달하였다.\r\n":9906,"▁광범위":9907,"운동에":9908,"▁이루었다.\r\n":9909,"▁자연수가":9910,"▁자연과학":9911,"▁formula_39":9912,"▁formula_33의":9913,"▁리소":9914,"▁리마스터":9915,"▁코드를":9916,"▁처럼":9917,"▁번개":9918,"▁합격":9919,"▁합당":9920,"▁합류":9921,"▁사건의":9922,"▁사건에서":9923,"▁북동":9924,"▁북미":9925,"▁북위":9926,"▁북핵":9927,"▁하나하":9928,"▁포함되지":9929,"▁formula_49":9930,"▁12일에":9931,"▁사회에서":9932,"▁9일":9933,"▁아니고":9934,"▁아니냐":9935,"▁태평양":9936,"▁애드":9937,"▁애초":9938,"▁애도의":9939,"▁감추":9940,"▁감상하는":9941,"▁못하는":9942,"▁주장도":9943,"▁소프트웨어,":9944,"▁CO":9945,"▁C의":9946,"▁‘TV":9947,"▁‘engine":9948,"▁방법이다.\r\n":9949,"▁방법으로는":9950,"▁취직":9951,"▁1966년":9952,"▁과학에":9953,"▁피난":9954,"▁피의":9955,"▁피아노":9956,"▁피에르":9957,"▁운영하고":9958,"▁구조,":9959,"▁실험이":9960,"▁실험에서":9961,"▁중심에":9962,"▁계산에":9963,"▁계산은":9964,"▁온도":9965,"▁온도가":9966,"▁온도,":9967,"▁현대에":9968,"▁본부":9969,"▁본토":9970,"▁본관은":9971,"▁게임에":9972,"▁11시":9973,"▁정치적으로":9974,"▁국민장으로":9975,"▁표기할":9976,"▁표기하는":9977,"▁민영":9978,"▁관련을":9979,"▁관련이":9980,"▁GFDL":9981,"▁갖춘":9982,"▁창업":9983,"▁호스트":9984,"▁모두를":9985,"▁발전이":9986,"▁발전해":9987,"▁발전했다.\r\n":9988,"▁개발을":9989,"▁프로그램들이":9990,"▁프로그램들을":9991,"▁인구의":9992,"▁설명은":9993,"▁설명이":9994,"▁설명하기":9995,"▁힘에":9996,"▁중국에서":9997,"▁중국에서는":9998,"▁중국어를":9999,"시키면,":10000,"▁위치가":10001,"▁위치와":10002,"▁위치한다.\r\n":10003,"▁위치하고":10004,"▁기술과":10005,"▁기술로":10006,"▁기술은":10007,"▁기술적":10008,"▁기술자는":10009,"▁구성된다.\r\n":10010,"▁발표되었다.\r\n":10011,"▁성립할":10012,"▁성립하는":10013,"▁성립하지":10014,"▁발견되는":10015,"▁순으로":10016,"▁수도인":10017,"▁곱은":10018,"▁곱으로":10019,"▁카피레프트":10020,"▁PC는":10021,"▁증명했다.\r\n":10022,"▁증명된다.\r\n":10023,"▁뒤를":10024,"▁개념으로":10025,"▁개념이다.\r\n":10026,"▁기준계에서":10027,"▁참여한":10028,"▁참여할":10029,"▁참여하여":10030,"▁기본으로":10031,"▁시대라고":10032,"▁실수체":10033,"▁있었는데,":10034,"▁금품을":10035,"▁시간당":10036,"▁시간의":10037,"▁물리학에서":10038,"▁물리학상은":10039,"▁생각된다.\r\n":10040,"▁우크라이나에":10041,"▁삼각함수가":10042,"▁시스템에":10043,"▁시스템이":10044,"▁용산":10045,"▁용인":10046,"▁용어가":10047,"▁철저":10048,"▁formula_60":10049,"▁formula_63":10050,"▁formula_64":10051,"▁부분에":10052,"▁부분을":10053,"▁부분이":10054,"▁부분으로":10055,"▁아닌,":10056,"▁극좌표":10057,"▁극심한":10058,"▁올리":10059,"▁올렸다.\r\n":10060,"▁제1회":10061,"▁뜻으로":10062,"▁치환":10063,"▁1928년":10064,"▁1922년":10065,"▁승리를":10066,"위원장":10067,"위원으로":10068,"▁구글이":10069,"▁상태로":10070,"▁IT":10071,"이었고,":10072,"이었으며":10073,"▁사실,":10074,"▁사실은":10075,"▁돌림힘":10076,"▁타임":10077,"▁타파":10078,"▁formula_56":10079,"▁formula_5는":10080,"▁행렬로":10081,"▁행렬식의":10082,"▁언론인":10083,"▁길이":10084,"▁길이가":10085,"▁길이와":10086,"▁와서":10087,"▁연산자의":10088,"▁연산자이다.\r\n":10089,"▁채워":10090,"▁문화와":10091,"▁러시아,":10092,"▁클래":10093,"▁클럽":10094,"▁클라우":10095,"▁173":10096,"▁17세기":10097,"▁대표하는":10098,"▁메소포":10099,"▁밀려":10100,"▁formula_73":10101,"▁formula_77":10102,"▁결합의":10103,"▁인터넷이":10104,"▁DVD":10105,"▁줄어":10106,"▁줄여서":10107,"▁투표를":10108,"▁업적을":10109,"▁기록된":10110,"▁야누코비":10111,"▁혼돈":10112,"▁이어졌다.\r\n":10113,"▁1916년":10114,"▁유리수는":10115,"▁환승":10116,"▁전쟁에서":10117,"▁아래는":10118,"▁아래로":10119,"▁아래에":10120,"▁조건으로":10121,"▁조건에서":10122,"▁결정했다.\r\n":10123,"▁드라마":10124,"▁드물게":10125,"▁드무아":10126,"▁친형":10127,"▁제2공화국":10128,"▁국제적인":10129,"▁상대속도는":10130,"▁필요하다.\r\n":10131,"▁막내":10132,"▁막대의":10133,"▁독립적인":10134,"▁Mach":10135,"▁백두":10136,"▁다루고":10137,"▁다루기":10138,"▁농민":10139,"▁앞장":10140,"들과는":10141,"▁글자를":10142,"▁정책은":10143,"▁도입하여":10144,"▁통계역학":10145,"▁작용하지":10146,"▁브라–켓":10147,"▁A,":10148,"▁AP":10149,"▁맥락":10150,"▁테스트":10151,"▁평균기":10152,"▁다항식으로":10153,"▁무한한":10154,"er의":10155,"▁걸어":10156,"▁지방을":10157,"▁지방의":10158,"▁일본어에서는":10159,"▁확장팩":10160,"▁확장한":10161,"▁확장하여":10162,"▁민주당의":10163,"▁FI":10164,"▁F.\r\n":10165,"▁Fre":10166,"▁준이치로":10167,"▁진행되고":10168,"▁히데":10169,"▁히로":10170,"▁실제적인":10171,"▁되었다":10172,"▁되었을":10173,"▁되었으며,":10174,"▁되었으나":10175,"▁되었으며":10176,"▁논란을":10177,"▁양자역학에":10178,"▁양자역학을":10179,"▁핵실험":10180,"▁가정한다.\r\n":10181,"▁보수언":10182,"▁2007년에":10183,"▁파일의":10184,"▁차지하는":10185,"▁차지하였다.\r\n":10186,"▁차지하게":10187,"▁들었다.\r\n":10188,"▁병력":10189,"▁도시가":10190,"▁끝난":10191,"▁켓은":10192,"▁켓의":10193,"▁켓이다.\r\n":10194,"▁이전의":10195,"▁30분":10196,"▁적용된":10197,"▁적용한":10198,"▁노동조합이":10199,"▁넘겨":10200,"▁기계공":10201,"▁기계에":10202,"▁발달로":10203,"▁발달하였다.\r\n":10204,"▁발달되어":10205,"▁파동함수":10206,"▁학생운동":10207,"▁TT":10208,"▁갈루":10209,"▁않고도":10210,"니아는":10211,"▁대학교에":10212,"▁상당수는":10213,"▁상수라고":10214,"▁형성하고":10215,"▁프로젝트에":10216,"▁이해하기":10217,"▁이해하지":10218,"▁아이폰":10219,"▁아이디어를":10220,"▁프랙탈은":10221,"▁귀류":10222,"▁별로":10223,"▁별개의":10224,"▁별도의":10225,"▁별명을":10226,"▁쿼크로":10227,"▁지구는":10228,"▁중력은":10229,"▁중력장이":10230,"▁분류할":10231,"▁통일을":10232,"▁곱셈을":10233,"▁곱셈으로":10234,"▁벌였다.\r\n":10235,"▁웹페이지":10236,"▁헤비사이드":10237,"▁대신,":10238,"▁힐베르트는":10239,"▁반대하는":10240,"▁종류가":10241,"▁종류에":10242,"▁하여금":10243,"▁영국,":10244,"▁맥스웰이":10245,"▁놀이를":10246,"▁놀이의":10247,"▁늘리":10248,"▁대중적":10249,"▁대중에게":10250,"▁빌의":10251,"▁대하여,\r\n":10252,"▁주어진다.\r\n":10253,"▁고대부터":10254,"▁해결하는":10255,"▁면에서는":10256,"▁면적은":10257,"▁밖에도":10258,"▁악의적인":10259,"▁이르고":10260,"▁수준에서":10261,"▁formula_80":10262,"▁유닛의":10263,"▁유닛이":10264,"▁보도되었다.\r\n":10265,"▁보도하기도":10266,"▁방향의":10267,"▁방향이":10268,"▁방향으로":10269,"▁실패로":10270,"▁고려하여":10271,"▁변환은":10272,"▁EP":10273,"학자이자":10274,"▁현상의":10275,"▁현상으로":10276,"▁프랑스,":10277,"...\r\n":10278,"▁formula_9의":10279,"▁공개적으로":10280,"▁인간을":10281,"▁좌표계를":10282,"▁좋아":10283,"▁기초가":10284,"▁의원이":10285,"▁작업에":10286,"▁설치된":10287,"▁요구하는":10288,"▁요구하기도":10289,"▁암흑":10290,"▁침해":10291,"▁14일":10292,"▁14세기":10293,"▁보여준다.\r\n":10294,"▁예술의":10295,"▁재단의":10296,"▁재단에서":10297,"▁알려져있다.\r\n":10298,"▁폐간":10299,"▁폐쇄":10300,"노동자들은":10301,"시켜야":10302,"▁사상\r\n":10303,"▁23일,":10304,"▁전개를":10305,"▁영화배우":10306,"▁허가를":10307,"▁HT":10308,"▁케플러":10309,"▁키이우":10310,"▁유사하다.\r\n":10311,"▁유일하다.\r\n":10312,"▁방언은":10313,"▁스칼라는":10314,"▁1년간":10315,"▁대칭은":10316,"▁가리키":10317,"▁일으키는":10318,"▁않았다고":10319,"▁당선되면서":10320,"▁환경을":10321,"▁ROM":10322,"▁견해를":10323,"▁망명":10324,"▁수행하는":10325,"▁가속화":10326,"▁지배를":10327,"▁분포는":10328,"▁표시하는":10329,"▁표시한다.\r\n":10330,"▁선언했다.\r\n":10331,"▁표기법으로":10332,"▁읽을":10333,"▁한총련은":10334,"▁경찰이":10335,"▁국회에서":10336,"▁불리며,":10337,"▁특징은":10338,"▁행동이":10339,"▁북한에":10340,"▁조선민주주의인민공화국과":10341,"▁조선민주주의인민공화국은":10342,"▁박정희의":10343,"▁움직인":10344,"▁송금":10345,"▁압력을":10346,"▁퇴화":10347,"▁전통적으로":10348,"▁일어나는":10349,"▁공동으로":10350,"▁지적도":10351,"▁지적했다.\r\n":10352,"▁지적하였다.\r\n":10353,"▁변경하였다.\r\n":10354,"▁신문으로":10355,"▁교토시":10356,"▁오늘날까지":10357,"▁오늘날에도":10358,"▁이야기,":10359,"▁수소와":10360,"▁1901년":10361,"▁종족은":10362,"▁종족이":10363,"▁확률을":10364,"▁배포판":10365,"▁찬성":10366,"▁전문가":10367,"▁전해진다.\r\n":10368,"▁2000년에":10369,"▁초월수의":10370,"▁맡았다.\r\n":10371,"▁다만,":10372,"▁생활에":10373,"▁formula_10에":10374,"▁평화상":10375,"▁평화상을":10376,"▁지지율을":10377,"▁IBM의":10378,"문학이":10379,"▁수집하고":10380,"▁제품을":10381,"▁부정적":10382,"▁내적은":10383,"▁체계이다.\r\n":10384,"all":10385,"▁석유":10386,"▁석탄":10387,"경제신문":10388,"▁유카와의":10389,"▁국내외":10390,"▁불구속":10391,"▁불구하고,":10392,"위원회에":10393,"▁터키시":10394,"▁터키의":10395,"▁기하학":10396,"▁시도하였으나":10397,"▁활용한":10398,"▁규칙을":10399,"▁떠오":10400,"▁트랜":10401,"▁트럭":10402,"▁홀로":10403,"▁홀수":10404,"▁통합하여":10405,"▁통합민주당":10406,"▁변호사로":10407,"▁어머니는":10408,"▁바뀌었다.\r\n":10409,"▁나타나고":10410,"▁명칭은":10411,"▁명칭을":10412,"▁클린턴과":10413,"▁접근을":10414,"▁접근할":10415,"▁담당하는":10416,"▁절대적인":10417,"▁커뮤니티가":10418,"▁커뮤니티는":10419,"▁흑백":10420,"▁지나지":10421,"▁유용하다.\r\n":10422,"▁인사들이":10423,"▁차례로":10424,"▁플랑크의":10425,"▁능력이":10426,"선거에서":10427,"스포드":10428,"▁수열은":10429,"▁수열의":10430,"▁가르치":10431,"▁가르침":10432,"▁제조업체":10433,"▁개혁을":10434,"▁1998년에":10435,"▁화합물의":10436,"연구소":10437,"▁사법처리":10438,"▁선출되었다.\r\n":10439,"▁영토를":10440,"▁출마를":10441,"▁목표는":10442,"▁GPLv":10443,"▁GPL의":10444,"▁밝혀졌다.\r\n":10445,"▁x86":10446,"▁단백질은":10447,"▁땅에":10448,"▁울릉":10449,"▁의견도":10450,"▁부족한":10451,"▁집중적으로":10452,"▁집중되어":10453,"▁들어서면서":10454,"▁드러나":10455,"▁갈등을":10456,"▁멀리":10457,"▁옥스포드":10458,"▁옮긴":10459,"▁워싱턴":10460,"▁중간자":10461,"▁인도네시아":10462,"▁관성텐서":10463,"▁오른손":10464,"▁엔탈피의":10465,"▁치러졌다.\r\n":10466,"▁새천년민주당은":10467,"▁새천년민주당의":10468,".7%,":10469,"▁끼쳤다.\r\n":10470,"▁섬유":10471,"▁풍부":10472,"▁제3공화국":10473,"▁바람이":10474,"▁프로토스":10475,"▁항등식":10476,"▁징집":10477,"▁흥미를":10478,"▁그림을":10479,"▁보일은":10480,"▁부등식은":10481,"▁재판을":10482,"▁선형대수학의":10483,"▁묻는":10484,"▁숫자":10485,"▁대륙성":10486,"▁인류의":10487,"▁구체적으로":10488,"▁설문지는":10489,"▁인구밀도는":10490,"▁밝히는":10491,"▁맞추어":10492,"▁전자기파의":10493,"▁벨라":10494,"▁벨기에":10495,"▁액션":10496,"▁탐구":10497,"▁전반적으로":10498,"▁공용어는":10499,"▁방일영은":10500,"▁비례한다.\r\n":10501,"▁발간한":10502,"▁내각을":10503,"▁변인\r\n":10504,"▁알고리즘":10505,"▁활발히":10506,"▁짧은":10507,"▁희곡":10508,"▁희생":10509,"▁이인규":10510,"▁일치한다.\r\n":10511,"▁제정하여":10512,"▁서양의":10513,"▁결성하여":10514,"▁출간한":10515,"▁현재까지도":10516,"▁테란의":10517,"▁베르누이가":10518,"명/km2,":10519,"-아미노산":10520,"▁잇는":10521,"▁착수":10522,"▁아무런":10523,"▁세워진":10524,"▁세워졌다.\r\n":10525,"▁스위스의":10526,"▁필수적인":10527,"▁완전한":10528,"▁채취할":10529,"▁혼합형":10530,"▁헌법재판소의":10531,"▁여론조사":10532,"▁덕수궁":10533,"▁인식하고":10534,"▁보여주었다.\r\n":10535,"▁y,":10536,"▁납북":10537,"▁컨트롤":10538,"▁모순이":10539,"▁연주를":10540,"▁원자핵의":10541,"▁독립운동가":10542,"▁중성미자":10543,"▁중성미자는":10544,"▁써서":10545,"▁짓고":10546,"▁다니엘":10547,"▁목적의":10548,"▁베이징":10549,"▁찬양하는":10550,"▁멀티플레이":10551,"▁꼴의":10552,"▁돕기":10553,"▁띠고":10554,"▁셀빅":10555,"기관의":10556,"다”라고":10557,"▁실질적인":10558,"▁통상적인":10559,"▁내놓았다.\r\n":10560,"▁남겼다.\r\n":10561,"▁종로구":10562,"▁1861년":10563,"▁타이완":10564,"▁데이터베이스":10565,"▁낙선했다.\r\n":10566,"▁피시방은":10567,"▁링크를":10568,"생물학":10569,"▁자발적으로":10570,"▁조금씩":10571,"▁표제어":10572,"▁해양수산부":10573,"▁카터는":10574,"▁홈페이지에":10575,"ect":10576,"obot":10577,"▁몫집합":10578,"▁샌프란":10579,"▁숭실":10580,"▁보스-아인슈타인":10581,"▁내세웠다.\r\n":10582,"▁존중받":10583,"▁운동에너지는":10584,"▁한국대학총학생회연합은":10585,"▁엔터테인먼트가":10586,"▁균형":10587,"▁벤젠":10588,"▁평안북도":10589,"▁알파벳":10590,"▁화강편마":10591,"▁사회진화론":10592,"▁청계천":10593,"▁플로피":10594,"▁formula_53에":10595,"▁메이오":10596,"▁브라우저":10597,"▁르네상":10598,"▁옥스퍼드":10599,"▁힐러리":10600,"간첩단":10601,"스럽게":10602,"클리스트":10603,"▁정사각행렬":10604,"▁자전거":10605,"▁분모에":10606,"▁해밀토니":10607,"▁강수량은":10608,"▁장학금을":10609,"▁CD-ROM":10610,"▁헤르츠":10611,"▁놀라운":10612,"ence":10613,"▁3.14159":10614,"▁멘델레":10615,"▁까닭":10616,"▁횡령":10617,"▁일컫는":10618,"▁공과대학교":10619,"▁중소기업":10620,"▁연소열":10621,"▁우간다":10622,"▁저격수":10623,"▁카이저":10624,"▁클러스터":10625,"▁아이소스핀":10626,"▁쇼핑몰":10627,"▁기자회견을":10628,"▁꾸준히":10629,"▁득표":10630,"▁래리":10631,"▁몬테":10632,"▁찰스":10633,"서비스":10634,"▁아나톨리아":10635,"▁방우영":10636,"▁나중에는":10637,"▁통틀어":10638,"▁고이즈미":10639,"▁오레건주":10640,"▁무작위":10641,"▁데데킨트":10642,"▁자유낙하하는":10643,"▁자유민주연합":10644,"▁클리닉":10645,"▁클라이언":10646,"▁네덜란드":10647,"▁케네디":10648,"▁닌텐":10649,"▁휩싸":10650,"▁and":10651,"▁대검찰청":10652,"▁모놀리식":10653,"▁만델브로트":10654,"▁스튀름-리우빌":10655,"▁데스크톱":10656,"▁광범위하게":10657,"▁메소포타미":10658,"▁야누코비치가":10659,"▁드무아브":10660},"merges":["\r \n",". \r\n","다 .\r\n","▁ 이","▁ 있","으 로","▁ 1","▁ 대","에 서","▁ 수","▁ 사","▁ 그","▁ 정","▁ 한","▁ 다","▁ 가","▁ 기","▁ 2","▁있 다.\r\n","하 는","▁1 9","o r","▁ 전","l a","u la","f or","for m","ula _","form ula_","▁ formula_","▁ 일","이 다.\r\n","▁ 공","▁ 위","▁ 하","▁ 지","▁ 자","▁ 시","▁ 등","▁ 중","었 다.\r\n","▁ 것","하 였","▁ 제","▁ 유","▁ 아","했 다.\r\n","▁ 인","하 여","▁ 노","▁ 같","▁ 주","0 0","고 ,","▁ 보","▁ 방","▁ 구","▁ 경","▁ 비","▁대 한","며 ,","▁ 조","▁ 모","▁ 의","한 다.\r\n","에 는","▁ 나","▁ 연","▁ 국","▁ 발","▁ 서","▁ 문","▁ 여","▁ 개","▁ 상","하였 다.\r\n","▁ 관","▁ 부","▁ 분","되 었다.\r\n","▁ 때","▁ 실","적 인","하 고","▁ 따","▁ 또","▁ 소","▁다 음","▁ 만","▁ 통","▁사 용","라 고","▁ 원","▁ \"","▁ 고","▁ 미","▁ 동","▁ 물","▁ 3","▁ 표","▁ 선","적 으로","▁ 않","▁ 도","▁ 성","▁ 후","▁ 세","▁ 함","▁ 운","된 다.\r\n","▁ '","▁ 해","▁ 계","▁ 불","▁2 00","▁ 오","▁ 결","▁ 집","부 터","▁있 는","▁ 반","▁ 영","▁ 내","지 만","라 는","▁한 다.\r\n","▁ 현","▁ 생","▁ 양","다 는","▁같 은","▁따 라","▁ 단","▁formula_ 1","▁ 무","▁ 작","▁ 프","0 년","▁다음 과","▁ 두","하 기","▁ 변","▁ 어","무 현","▁ 없","되 어","▁ 스","까 지","다 고","으 며,","▁또 한","민 국","▁노 무현","▁ 마","▁ 많","▁ 5","▁ 거","▁ 각","에서 는","▁ 과","▁ 에","들 이","들 은","▁ 최","면 서","▁ 설","▁2 0","▁ 특","▁ 받","▁이 후","▁ 당","▁ 4","▁대한 민국","통 령","▁ 예","▁ 초","▁ 우","▁ 추","▁ 진","정 식","▁일 본","들 어","이 나","▁ 말","▁ 바","▁경 우","▁대 통령","▁운 동","▁ 강","으 나","하 게","▁대 해","▁ 신","▁ 역","▁ 평","▁ 파","▁ 차","▁한 국","▁ 알","▁ 되","수 의","▁ 입","▁공 간","▁나 타","▁ 남","▁ 출","▁ 형","▁ 포","▁때 문","▁그 러","▁ 독","▁ 체","▁ 명","▁19 9","▁ 재","▁ 더","민 주","주 의","▁ 교","▁방 정식","▁ 존","▁집 합","▁ 적","▁다 른","▁ 회","▁ 크","▁ 행","▁정 의","▁시 작","▁위 해","▁ 외","▁ 종","▁ 장","에 게","▁20 1","▁ 복","▁프 로","▁ P","▁ 확","너 지","▁ 로","들 의","▁ 학","▁ 법","프 트","9 년","▁ 속","▁ 화","▁ 직","기 도","컴 퓨","하 지","▁가 지","▁ 증","▁여 러","▁것 이","되 었","▁그러 나","▁ 언","▁위 키","▁미 국","컴퓨 터","▁연 구","▁함 수","▁ 매","▁모 든","8 년","▁ 쓰","▁ 된다.\r\n","▁같 이","▁서 울","▁통 해","▁에 너지","▁ 간","에 도","▁이 용","되 는","들 을","▁ 음","였 다.\r\n","2 년","▁ 6","▁ 논","▁ 안","백 과","▁ 임","▁ 즉","벡 터","▁ 컴퓨터","▁사 람","▁수 학","▁그 리","3 년","▁ 김","이 라고","▁그 는","▁문 제","7 년","▁ 산","▁존 재","▁ 및","▁ 약","▁조 선","▁ 삼","▁ 들어","학 교","▁ 되었다.\r\n","▁정 부","▁ 배","4 년","▁ 데","▁ 하는","▁ 열","▁일 반","▁국 가","▁ 게","면 ,","았 다.\r\n","▁때문 에","▁이 론","▁가 장","▁많 은","▁ 점","▁사 이","▁노 동","▁formula_ 2","▁ 참","▁ \r\n","으 며","▁물 리","▁ 요","▁의 해","▁ 새","▁ 저","▁등 의","는 다.\r\n","▁당 시","데 ,","5 년","▁ 벡터","▁같 다.\r\n","▁ 근","▁1 0","1 년","▁ 8","▁이 를","▁것 을","6 년","▁ 7","학 의","▁ 건","▁ 라","▁자 유","▁함 께","▁ 활","▁이 는","▁세 계","▁ 식","웨 어","▁ 달","▁19 8","▁표 현","▁ 광","러 한","운 동","▁ 검","베 르","▁이 루","시 아","▁자 연","▁ 했다.\r\n","▁이 러한","▁formula_ 3","▁ 리","자 의","▁ 코","▁양 자","▁ 《","▁ 처","▁ 편","▁ 얻","▁그 의","▁ 번","기 를","로 ,","▁후 보","▁현 재","▁ 합","▁ 총","하 면","▁사 건","▁것 으로","▁또 는","▁ 할","▁ 항","▁ 북","▁하 나","▁것 이다.\r\n","지만 ,","▁포 함","▁formula_ 4","▁즉 ,","▁ 폴","▁19 7","▁여 기","수 는","이 라는","이 며,","자 가","▁1 2","▁사 회","▁그리 고","▁ 9","▁ 필","0년 대","▁아 니","▁공 식","프트 웨어","▁ 태","▁ 애","▁ 감","▁ 목","▁ 질","리 는","▁ 못","▁19 4","▁전 자","▁주 장","사 를","▁관 계","▁소 프트웨어","▁따라 서","▁ C","▁ ‘","▁ 민주","세 기","▁1 8","▁방 법","▁ 취","국 의","▁19 6","▁형 태","▁ 박","▁ 군","수 가","▁과 학","▁ 큰","▁ 피","되 고","수 를","▁운 영","거 나","일 보","자 는","하 다.\r\n","▁지 역","▁구 조","▁분 야","▁실 험","▁프로 그","▁법 칙","리 를","▁폴 링","어 진","▁중 심","▁계 산","▁ 온","자 를","▁현 대","▁ 값","▁ 본","상 을","성 을","지 는","▁가 능","▁것 은","▁위키 백과","▁게 임","▁ 커","부 분","▁이 름","▁1 1","▁정 치","▁국 민","하 면서","▁등 을","▁표 기","도 를","▁ 민","▁ 판","다 \"","▁관 련","▁ 청","▁있 었다.\r\n","▁정 보","▁ G","▁ 갖","▁ 창","▁ 허","▁ 호","로 서","보 다","▁다 시","▁모 두","▁발 전","▁개 발","하 고,","▁문 서","▁ 0","역 학","▁등 이","▁프로그 램","▁ 완","▁인 구","▁설 명","▁ 힘","▁이 에","▁중 국","▁화 학","스 는","시 키","요 한","화 국","▁위 치","▁결 과","으나 ,","▁ 충","해 서","▁대 부분","▁기 술","▁구 성","▁발 표","▁성 립","▁성 질","하기 도","▁예 를","▁독 일","▁ 디","스 트","▁발 견","스 의","▁서 로","▁어 떤","▁ 높","▁ 순","▁ 앙","▁ 측","가 지","개 의","다 .","▁수 도","▁한 편","▁19 5","▁위 한","하여 ,","▁ 곱","▁ 카","▁이 상","▁P C","▁증 명","▁ 규","▁ 엔","▁ 토","이 는","졌 다.\r\n","▁하 지만","▁활 동","▁ 뒤","▁ 브","체 의","▁있 으며,","▁다 양","▁개 념","▁알 려","▁매 우","다 가","로 는","스 템","위 를","▁기 준","▁의 미","▁영 향","▁참 여","▁기 본","▁자 신","▁시 대","▁실 수","▁선 형","▁ 권","▁있 었","▁지 지","▁인 터","▁비 판","▁ 금","라 이나","장 을","▁표 준","▁처 음","므 로","▁시 간","▁경 제","▁물리 학","▁여기 서","▁ 는","▁ 살","로 부터","리 가","크 라이나","하 며","▁일 부","▁않 는","▁생 각","▁우 크라이나","▁삼 각","▁ 탄","이 지","이 터","▁시 스템","▁만 들어","▁ 용","▁ 철","▁formula_ 6","▁과 정","▁복 소","▁새 로","▁ 러","▁ 밝","▁ 플","이 라","에서 의","▁부 분","▁5 월","▁특 히","▁따 르","▁선 택","사 전","▁이 것","▁아 닌","▁ 극","▁ 버","▁ 올","▁제 1","▁제 공","▁ 뜻","▁ 치","공 화국","도 로","일 러","▁19 2","▁19 3","▁하 였다.\r\n","▁ 승","도 록","서 는","위 원","회 의","▁구 글","▁상 태","▁ I","났 다.\r\n","이 었","▁사 실","▁만 족","▁변 화","▁없 는","▁노무현 은","▁ 뉴","▁ 돌","▁ 타","▁ 했","계 를","어 를","▁formula_ 5","▁조 사","▁서 비","▁원 소","▁나타 내","▁행 렬","▁언 론","▁조선 일보","▁ 길","▁ 와","대 로","에서 도","▁연 산","▁ 된","▁ 맞","▁ 채","식 을","▁가 진","▁문 화","▁가지 고","▁러 시아","▁ 심","어 나","▁계 속","▁또한 ,","▁최 초","▁초 기","▁ 책","▁ 클","나 라","는 데,","레 이","리 아","▁1 7","▁대 표","▁지 원","▁비 롯","▁대한민국 의","▁폴링 은","▁ 메","▁ 밀","▁ 천","▁formula_ 7","▁3 월","▁결 합","▁많 이","▁인터 넷","▁ D","▁ 응","▁ 줄","▁ 투","간 의","리 에","▁있 어","▁1 6","▁위 의","▁원 자","▁질 량","▁ S","▁ 네","▁ 은","기 가","▁평 가","▁ 베","▁ 업","이 었다.\r\n","정 부","▁기 록","▁속 도","▁ 야","▁ 혼","력 을","인 민","▁이 어","으로 는","▁19 1","▁자 료","▁유 리","▁인 해","▁마 이","▁새로 운","▁ 환","▁전 쟁","하였 고,","▁아 래","▁조 건","▁만 들","▁선 거","▁결 정","베르 트",". 1","▁ 드","▁ 첫","▁ 협","자 .\r\n","학 은","에서 ,","▁주 로","▁작 품","▁검 찰","▁ 좌","국 가","사 인","스 를","자 로","▁1 5","▁전 체","▁자 기","▁각 각","▁체 제","▁산 업","▁앙 카","▁ 친","▁ 헌","▁제 2","▁국 제","▁개 인","▁상 대","▁4 월","▁12 월","▁필 요","▁ K","▁ 막","▁ 접","▁ 되어","되 지","어 는","정 한","으로 써","▁기 능","▁내 용","▁독 립","백과 사전","▁데 이터","▁ M","▁ 몇","▁ 백","▁ 범","른 다.\r\n","이 고","▁1 월","▁동 안","O S","기 에","하 며,","▁사 망","▁다 루","▁분 석","▁200 9년","▁영향 을","▁ 급","▁ 농","▁ 둘","▁ 앞","는 데","들 과","사 가","일 에","▁음 악","▁ 글","▁ 담","▁ 볼","▁ 잘","▁ 패","력 이","수 로","일 ,","크 로","했 고,","으로 ,","▁정 책","▁기 업","▁중 앙","▁미 분","▁않 는다.\r\n","▁도 입","▁ 누","▁ 터","기 는","도 의","임 을","▁하 이","▁통 계","▁작 용","▁직 접","▁번 째","▁아니 라","▁브 라","▁ A","▁ 맥","▁ 테","트 로","▁평 균","▁ 페","식 은","자 들은","크 는","▁다 항","▁등 장","▁중 요한","▁물 질","▁무 한","▁역 시","▁10 월","e r","▁ 걸","자 인","조 합","▁지 방","▁원 주","▁오 일러","▁일본 어","▁회 전","▁확 장","▁일반 적으로","▁8 월","▁라 이","▁이루 어","▁민주 당","▁ F","▁ 준","도 는","라 스","▁가 운","▁않 은","▁결 국","▁설 립","▁받 았다.\r\n","▁다양 한","▁ 슈","▁정 권","▁없 다.\r\n","▁추 가","▁크 게","▁ 왕","학 을","▁위 상","▁모 형","▁진 행","민주 주의","▁11 월","▁원주 율","▁가운 데","▁ 히","업 을","▁발 생","▁실 제","▁동 치","▁되 었","▁언 어","▁존재 한다.\r\n","기 로","인 다.\r\n","자 들이","함 수","힐 베르트","▁대 수","00 0","▁관 한","▁논 란","▁임 의","▁양자 역학","▁성립 한다.\r\n","▁ 절","▁ 핵","도 가","성 이","▁가 정","▁하 고","▁노 벨","▁보 수","▁연 결","▁200 7년","▁파 일","▁차 지","▁증 가","▁코 사인","인민 공화국","▁헌 법","▁ 들","▁ 병","▁ 윤","디 오","라 이","으로 부터","▁고 전","▁도 시","▁단 위","▁받 아","▁경우 ,","▁운동 량","▁되 는","▁때문 이다.\r\n","▁전자 기","▁ 끝","▁ 빛","▁ 켓","이 며","이 자","자 와","학 에서","▁이 전","으로 서","▁서 버","▁상 호","▁3 0","▁노무현 의","▁적 용","▁노동 조합","▁편 집","▁커 널","▁ B","▁ 넘","▁ 쌍","하 려","해 야","▁이 때","▁있 다는","▁대 하여","▁기 계","▁전 국","▁유 명","▁발 달","▁해 석","▁역 할","▁파 동","▁프로 젝","▁학 생","▁서비 스","▁앙카 라","▁ T","▁ 갈","다 면","래 프트","므 로,","시 에","왔 다.\r\n","전 히","크 래프트","학 생","화 를","▁이 유","▁있 고,","▁있 다고","▁대 상","▁기 반","▁기 원","▁중 화","▁인 정","▁부 른다.\r\n","▁만 약","▁않 고","▁함 수의","▁프 랙","▁애 국가","N U","▁ ,","▁ 찾","▁ 황","니 아","제 를","▁대 학교","▁수 립","▁정 리","하였 고","▁상 당","▁상 수","▁성 공","▁거 리","▁추 진","▁형 성","▁6 월","▁프로젝 트","▁ “","▁ 을","▁ 효","대 의","식 으로","이 기","작 용","장 이","타 크래프트","▁이 해","▁대 응","▁한 반","▁아 이","▁해 당","▁단 일","운동 량","▁중심 으로","시키 는","▁응 용","▁프랙 탈","D A","▁ 귀","▁ 별","▁ 졸","▁ 쿼","기 의","냈 다.\r\n","방 정식","사 의","선 을","스 웰","이 가","지 를","▁수 상","▁지 구","▁중 력","▁제 국","▁보 통","▁분 류","▁통 일","▁사용 자","▁불 교","▁로 봇","▁미국 의","▁사이 에","▁7 월","▁높 은","▁곱 셈","▁마이 크로","▁ 벌","▁ 웹","▁ 헤","가 능","과 의","권 을","드 는","들 에게","디 어","점 을","차 원","▁대 신","▁대 전","▁개 의","▁물 체","▁생 성","▁조선 민주주의","▁들어 ,","▁G NU","트로 피","▁ 날","▁ 탈","▁ 퍼","▁ 폭","▁ 힐베르트","물 을","시 간","▁있 으며","▁대 선","▁유 지","▁조 직","▁물 체의","▁반 대","▁각 운동량","▁방정식 은","▁방정식 을","▁시작 했다.\r\n","▁종 류","▁사이 의","▁민 족","▁성질 을","▁엔 트로피","▁비롯 한","▁임의 의","▁ -","▁ <","▁ N","▁ 를","낸 다.\r\n","문 을","식 의","원 을","조 선","통 신","▁이 와","▁하 여","▁등 으로","▁때 ,","▁소 수","▁영 국","▁작 은","▁거 의","▁남 북","되었 고,","▁얻 는다.\r\n","▁9 월","▁갖 는","▁최초 의","▁맥 스웰","▁ L","▁ 놀","▁ 늘","▁ 레","많 은","였 던","우 스","이 를","이 고,","자 ,","하 거나","▁이 다.\r\n","▁1 00","▁대 중","▁수 많은","▁그 것","▁방 송","▁여 론","▁관 측","▁200 3년","▁최 근","▁말 한다.\r\n","▁대통령 의","▁대해 서","▁역 사","민주 당","▁P DA","▁간 단","▁삼각 형","▁이것 은","▁ 널","▁ 빌","▁ 손","기 와","됐 다.\r\n","만 을","명 을","미 노","어 의","정 을","진 다.\r\n","체 로","▁대 하여,","▁수 는","▁그 가","▁주 어진","▁고 대","▁해 결","▁단 순","▁받 았","▁일반 적인","▁대부분 의","▁기준 으로","▁자신 의","▁졸 업","▁ 루","▁ 면","▁ 밖","▁ 블","▁ 악","▁ 혹","▁ 백과사전","명 이","스 ,","식 이","장 의","학 ,","했 다고","▁이 르","▁수 준","▁그 렇","▁정 확","▁formula_ 8","▁유 닛","▁보 도","▁방 문","▁방 향","▁관 심","▁실 패","▁고 려","▁200 8년","▁무 리","▁변 환","▁열 린","▁건 설","▁태 어","▁군 사","▁하이 젠","▁널 리","e n","▁ E","▁ 빠","되 면서","들 에","론 적","법 을","부 를","이 트","총 련","타 인","하 던","학 자","▁정 몽","▁제 외","▁관 리","▁200 2년","▁현 상","▁프 랑","▁최 고","▁측 정","▁하이젠 베르",". .","k m","▁ 쉽","▁ 잡","▁ 홍","계 의","나 는","명 의","소 를","어 가","음 을","학 과","했 던","▁이 런","▁그 래","▁formula_ 9","▁공 개","▁등 에","▁인 간","▁나 라","▁부 산","▁소 련","▁도 스","▁공간 의","▁출 신","▁외 교","▁201 0년","▁사건 ,","▁좌 표","▁ 색","▁ 좋","가 와","대 학교","리 드","스 크","장 에","장 으로","키 는","하 자","▁이 미","▁있 게","▁기 초","▁2 월","▁하 였","▁보 존","▁의 원","▁작 업","▁설 치","▁특 별","▁나타 낼","▁출 판","▁정부 는","▁요 구","▁검 색","▁하나 의","▁돌 아","▁역할 을","미노 산","▁혹 은","i n","▁ ·","▁ 암","▁ 윈","▁ 침","▁ 캠","계 가","계 에","한 다는","▁있 던","▁1 4","▁하 자.\r\n","▁자 동","▁보 여","▁구 간","▁발 언","▁통 신","▁동 시에","▁반 응","▁예 술","▁대통령 이","▁재 단","▁교 육","▁에너지 는","▁이루 어진","▁이름 을","▁알려 져","▁복소 수","▁나타내 는","▁ 곳","▁ 축","▁ 폐","▁ 풀","결 합","노 동","시 켜","원 의","적 이","집 합","했 다는","▁이 룬","▁수 가","▁사 상","▁2 3","▁전 개","▁주 요","▁사용 하여","▁영 화","▁받 은","▁문제 를","▁라 플","▁허 가","▁처음 으로","▁밝 혔","▁플 랑","▁있어 서","▁ H","▁ 느","▁ 될","▁ 떨","▁ 케","▁ 키","▁ 휴","라 인","사 ,","사 로","슈 타인","어 로","있 는","지 고","처 럼","치 는","카 와","했 으며,","호 를","▁1 3","▁제 곱","▁제 시","▁유 사","▁유 일","▁방 언","▁부 르","▁따 른","▁스 칼","▁방정식 의","▁확 인","▁달 러","▁정몽 준","\" 라고","' ,","0 %","▁ 「","▁ 놓","▁ 엄","▁ 죽","다 면,","▁이 들","▁1 년","▁대 칭","▁가 리","▁일 으","▁하 며,","▁지 금","▁구 속","▁비 디오","▁만 든","▁사용 하는","▁않 았","▁않 았다.\r\n","▁200 4년","▁오 늘","▁생 산","▁단 체","▁formula_1 3","▁특 정","▁당 선","▁일본 의","▁출 범","▁더 욱","▁박 정","▁환 경","▁윤 치","▁ R","▁ 견","▁ 깊","▁ 망","▁ 몰","▁ 봉","▁ 뿐","▁ 혐","계 에서","대 에","대 한","도 ,","림 픽","마 스","부 의","이 어","인 이","지 로","회 를","▁이 로","▁있 을","▁1 ,","▁수 행","▁사 업","▁가 속","▁기 저","▁2 5","▁공 리","▁지 배","▁자 주","▁등 과","▁비 교","▁비 슷","▁의 한","▁분 포","▁표 시","▁선 언","▁두 고","▁운동 을","▁한국 의","▁나타 낸다.\r\n","▁199 0년대","▁항 상","▁법칙 을","▁표기 법","▁윈 도","i c","▁ 쓴","▁ 움","▁ 읽","갔 다.\r\n","과 는","대 학","렸 다.\r\n","성 ,","스 로","인 슈타인","찬 가지","학 적","▁대 학","▁사 인","▁정 상","▁한 총련","▁일 어","▁것 에","▁유 한","▁아 미노산","▁경 찰","▁국 회","▁다음 이","▁불 리","▁불 가능","▁마 찬가지","▁특 징","▁집합 은","▁행 동","▁학 문","▁임 시","▁광 고","▁북 한","▁조선민주주의 인민공화국","▁쉽 게","▁박정 희","▁움 직","' 로","▁ 낙","▁ 돈","▁ 송","▁ 압","▁ 퇴","▁ 푸","되 고,","등 학교","리 ,","리 의","사 와","사 에서","서 관","연 합","체 를","트 를","함 으로써","해 를","▁전 통","▁일 어나","▁공 동","▁지 적","하였 으나","▁개 최","▁사용 된다.\r\n","▁변 경","▁스 타크래프트","▁대한민국 은","▁신 문","▁교 토","▁적 분","▁외 국","▁이용 하여","▁구조 를","▁오늘 날","B M","D OS","P L","▁ =","▁ 넓","▁ 년","▁ 르","▁ 머","▁ 붙","▁ 월","▁ 흔","스 와","어 ,","역 학의","이 의","치 가","한 다고","▁이 렇","▁이 야","▁있 도록","▁수 소","▁다 르","▁2 9","▁19 0","▁전 하","▁일 제","▁제 기","▁유 도","▁유 럽","▁도 킨","▁세 력","▁계 의","▁거 쳐","▁각 종","▁우 주","▁종 족","▁복 잡","▁확 률","▁함수 는","▁쓰 인다.\r\n","▁사람 은","▁사람 들이","▁수학 적","▁배 포","▁근 대","▁관련 된","▁완 전히","▁뉴 턴","▁상호 작용","▁찾 아","▁이룬 다.\r\n","▁라플 라스","▁윤치 호","▁혐 의","[ [","a n","o n","▁ 격","▁ 답","▁ 찬","▁ 칼","만 이","서 를","선 이","원 이","장 은","▁이 동","▁1 일","▁그 런","▁한 나라","▁2 2","▁전 문","▁전 해","▁일 을","▁지 속","하였 으며,","▁주 변","▁나 오","▁후 에","▁계 획","▁불 리는","▁200 0년","▁200 6년","▁반 복","▁많 다.\r\n","▁초 월","▁정의 할","▁서울 의","▁김 영","▁합 성","▁포함 한","▁개념 을","▁대표 적인","▁ 난","▁ 맡","▁ 잠","▁ 향","기 ,","나 가","되 며,","들 로","떠 한","라 가","르 크","번 째","선 ,","스 가","아 시아","이 ,","지 에","체 가","치 를","했 고","▁이 주","▁다 만","▁일 정","▁주 기","▁소 설","▁물 은","▁있는 데,","▁영 어","▁생 활","▁formula_1 0","▁20 세기","▁평 화","▁입 자","▁종 교","▁필 요한","▁관계 를","▁따라서 ,","▁취 임","▁위키백과 의","다\" 라고","▁정보 를","▁지지 율","▁과정 에서","▁따르 면","▁I BM","▁기능 을","▁기원 전","▁한반 도","▁스칼 라","' 을","a t","c h","i s","▁ 낮","국 민","난 다.\r\n","동 안","머 니","문 학","산 ,","상 의","성 은","성 의","연 차","이 기도","인 은","있 다.\r\n","장 에서","켰 다.\r\n","▁수 집","▁가 족","▁기 호","▁제 품","▁구 별","▁문 학","▁부 정","▁실 시","▁실 행","▁내 적","▁최 소","▁바 탕","▁강 한","▁체 계","▁201 1년","▁정부 의","▁형태 로","▁가능 한","이었 던","▁최초 로","▁유리 수","▁제2 차","▁효 과",", 000","- DOS","a l","▁ U","▁ 석","경 제","관 계","그 룹","라 도","론 의","사 는","석 헌","시 킨","일 에는","전 을","전 자","지 막","▁이 외","▁이 들은","▁수 직","▁한 글","▁하 드","▁제 안","▁유 카와","▁구 분","▁경 쟁","▁비 해","▁연 속","▁국 내","▁상 황","▁원 래","▁불 구","▁결 혼","▁어 떠한","▁대해 서는","▁논 문","▁수학 자","▁식 을","▁형태 의","▁박 연차","▁값 을","▁따르 면,","위원 회","▁다루 는","▁터 키","▁라이 선","▁쌍 곡","▁쿼 크","▁하이젠베르 크는","0 만","▁ 덧","▁ 멸","▁ 칸","▁ 텍","값 을","격 을","대 중","론 을","마 다","물 리","뮤 니","버 지","사 건","사 에","속 도","수 에","위 는","클 리드","트 워","하 면,","화 가","회 담","▁수 정","▁기 하","▁19 세기","▁시 도","▁중 요","▁모 델","▁문 자","▁내 부","▁작 가","▁어 느","까지 는","▁노무현 이","▁마 지막","▁설 계","▁강 력","▁199 2년","▁201 3년","▁에너지 를","▁이용 한","▁활 용","▁방법 을","▁이상 의","▁규 칙","▁금 속","▁조선일보 는","▁논란 이","▁이렇 게","B S","· 1","▁ 니","▁ 떠","▁ 빅","▁ 염","▁ 트","▁ 홀","▁ [[","국 을","대 를","되 기","르 트","리 와","리 자","린 턴","법 칙","성 에","의 를","자 에","▁있 기","▁정 수","▁전 기","▁전 달","▁하 면","▁자 살","▁유 기","▁유 클리드","▁아 인슈타인","▁인 권","▁경 영","▁모 습","▁통 합","▁사용 한다.\r\n","▁계 승","▁집 단","▁영 역","▁생 물","▁변 호","▁어 려","▁어 머니","▁바 뀌","▁되 고","▁입 력","▁공간 은","▁나타 나","▁명 칭","▁201 4년","되었 으며,","▁논 쟁","▁약 한","▁온 라인","▁커 뮤니","▁프로그램 을","▁독일 의","▁버 전","▁클 린턴","▁접 근","▁담 당","▁절 대","▁멸 망","▁커뮤니 티","% ,","▁ m","▁ 곧","▁ 뇌","▁ 눈","▁ 앨","▁ 팔","▁ 흑","민 족","방 송","사 회","어 졌","원 에","위 로","으 면","이 란","자 들의","점 이","제 가","제 로","지 의","커 널","타 민","▁이 승","▁한 강","▁기 간","▁공 유","▁하 지","▁하 고,","▁지 나","▁등 은","▁제 작","▁유 용","▁인 사","▁의 혹","▁여 름","▁관 찰","▁만 드는","▁사용 할","▁운 행","▁양 의","▁특 수","▁진 보","▁차 례","▁정부 가","▁때문에 ,","▁저 작","▁처 리","▁번 역","▁애 플","▁감 마","▁충 돌","▁한편 ,","▁알려 진","▁올 림픽","▁가진 다.\r\n","▁D N","▁네 트워","▁유명 한","▁종류 의","km 2","▁밝혔 다.\r\n","▁플랑 크","▁한나라 당","▁텍 스트","' 라고","] ]","e m","▁ W","▁ 능","▁ 둔","▁ 묘","▁ 빼","공 업","기 업","단 체","되 기도","떻 게","류 :","명 박","부 는","분 류:","비 에","선 거","스 포","원 ,","원 은","장 과","중 에","지 역","특 별","하 지만","함 을","회 창","▁이 명박","▁이 회창","▁있 고","▁수 열","▁정 규","▁가 르","▁2 6","▁공 업","▁시 민","▁시 절","▁중 성","▁중 에","▁것 과","▁제 목","▁제 조","▁인 물","▁인 천","▁노 래","▁보 고","▁보 손","▁구 면","▁개 혁","▁분 자","▁때 는","▁미 술","▁불 확","▁200 1년","▁무 엇","▁추 상","▁알 아","▁199 8년","▁행 정","▁화 합","▁연구 하는","▁간 첩","▁문제 가","▁198 8년","▁18 9","▁값 은","▁판 단","다\" 고","▁청 와","▁결과 를","▁탄 핵","▁구글 은","▁작용 하는","▁페 르","▁핵 심","▁간단 히","▁자동 차","▁[[ 분류:","]] \r\n","\" 이라고","' 라는","e t","▁ 겨","▁ 깨","▁ 너","▁ 혁","▁ 다.\r\n","▁ 베르","끌 어","대 ,","력 의","로 그","론 이","르 는","선 의","설 을","소 가","소 에","연 구","영 은","이 드","인 을","인 의","인 으로","지 가","지 게","쪽 으로","탈 피","함 수의","▁사 법","▁한 일","▁가 입","▁기 여","▁기 존","▁공 학","▁위 에","▁자 리","▁아 시아","▁주 도","▁보 급","▁비 타민","▁대한 제","▁발 행","▁분 향","▁선 출","▁영 토","▁formula_1 1","▁formula_1 4","▁formula_1 의","▁대통령 은","▁운동 에","▁출 마","▁199 3년","▁교 통","▁201 6년","▁함수 를","▁사람 이","▁이론 을","▁건 물","▁광 주","▁자연 수의","▁양자 역학의","▁후보 가","▁목 표","▁못 했다.\r\n","▁주장 했다.\r\n","▁본 격","▁판 매","▁G PL","▁규 정","▁토 마스","▁활동 을","▁밝 혀","▁극 한","▁사실 을","▁접 속","▁몇 몇","▁모형 은","▁이유 로","▁중화 민국","▁곱셈 적","▁관심 을","▁윈도 우","▁김영 삼","▁하드 웨어","° C","▁ x","▁ 먼","▁ 썼","▁ 훈","기 에는","대 수","딩 거","론 ,","뢰 딩거","리 고","미 디어","백 질","스 터","시 가","식 에","원 으로","자 이다.\r\n","적 을","전 하","정 보","정 책","천 년","클 레","하 다는","했 으나","형 의","▁1 인","▁수 의","▁그 해","▁2 ,","▁2 차","▁전 환","▁시 각","▁제 타","▁나 온","▁연 방","▁국 무","▁통 한","▁동 일","▁단 백질","▁없 다는","▁스 핀","▁과 거","▁최 대","▁추 측","▁진 영","▁말 했다.\r\n","▁명 예","▁집합 의","▁외 에도","▁로 그","▁학 교","▁그리 스","▁김 대중","▁벡터 의","▁즉, \r\n","▁감 소","▁목 록","▁정치 적","▁문서 를","▁인구 는","▁PC 통신","▁시간 에","▁만족 시키는","▁개인 용","▁슈 뢰딩거","▁밖 에","▁떨 어","▁비슷 한","▁마찬가지 로","▁칸 토","▁이승 만","% 를","- 1","▁ 땅","▁ 울","▁ 왔다.\r\n","관 을","구 를","드 를","명 ,","명 으로","성 과","수 와","시 ,","와 의","익 태","적 이다.\r\n","점 으로","주 는","트 의","하 다고","한 국","화 된","▁있 다.","▁정 당","▁정 도","▁정 지","▁한 미","▁가 까","▁2 1","▁2 4","▁2 7","▁전 류","▁일 종","▁일 정한","▁공 산","▁지 하","▁유 희","▁인 공","▁인 수","▁경 험","▁의 견","▁의 존","▁국 정","▁국 회의","▁부 족","▁원 리","▁않 다.\r\n","▁도 쿄","▁함 석헌","▁집 중","▁formula_1 5","▁formula_1 9","▁작 성","▁과 학의","▁경우 가","▁파 괴","▁더 불","▁집합 이다.\r\n","되었 고","▁존재 하지","▁들어 서","▁이론 은","▁건 국","▁198 0년","▁리 만","▁아니 다.\r\n","▁못 하고","▁194 5년","▁관계 가","▁힘 을","▁자신 이","▁뜻 한다.\r\n","▁드 러","▁걸 쳐","▁갈 등","▁블 리자","▁태어 났다.\r\n","▁가리 키는","▁도킨 스는","▁바탕 으로","' 에","' 이라는",". 0",". 2","0 여","e l","▁ /","▁ 괴","▁ 긴","▁ 멀","▁ 밑","▁ 쓸","▁ 옥","▁ 옮","▁ 왔","▁ 워","▁ 육","▁ 잃","▁ 홈","같 은","과 학","관 이","도 에","드 의","롭 게","모 의","사 업","선 에","세 를","소 의","시 는","시 마","신 문","와 는","움 을","웠 다.\r\n","인 지","형 이","화 학","활 동","회 에서","▁있 지만,","▁대 북","▁수 록","▁사 진","▁기 념","▁기 소","▁기 온","▁일 차","▁공 화","▁등 에서","▁중 간","▁아 쿠","▁인 도","▁보 다","▁비 율","▁연 합","▁관 성","▁분 리","▁때 까지","▁소 속","▁소 비에","▁고 유","▁3 .1","적으로 는","▁불 러","▁오 른","▁반 면","▁따라 ,","▁formula_1 2","▁formula_1 6","▁작 곡","▁특 정한","▁받 고","▁입 학","▁나타 났다.\r\n","▁출 시","▁199 0년","▁199 9년","▁199 5년","▁정의 는","▁연구 를","4년 에","▁점 차","▁의해 서","▁새 천년","▁저 항","▁리 눅","▁여기 에","▁취 급","▁형태 를","▁실험 을","▁이름 이","▁국민 의","▁충 분","▁엔 탈피","▁의미 한다.\r\n","▁과정 을","▁치 러","▁뉴 욕","▁히 라가","▁실제 로","▁빛 의","▁상당 히","▁마이크로 커널","▁복잡 한","▁청와 대","▁더불 어","▁소비에 트","▁새천년 민주당","\" 의","% 로",". 7","2 P","s t","▁ O","▁ X","▁ 겪","▁ 곡","▁ 꼽","▁ 끼","▁ 류","▁ 믿","▁ 빈","▁ 섬","▁ 풍","▁ OS","가 는","감 을","당 이","라 며","량 의","력 과","리 포","리 클레","명 한","법 에","분 석","소 는","소 프트","스 케","시 켰다.\r\n","어 도","적 이고","정 상","정 치","지 기","지 지","지 털","지 면서","차 례","체 는","치 로","트 는","프 리","하 도록","해 ,","▁이 차","▁정 주","하는 데","▁전 파","▁위 하여","▁지 도","▁제 3","▁아 르","▁아 직","▁노 력","▁보 이는","▁방 응","▁조 지","▁조 합","▁조 사를","▁나 서","▁연 립","▁관 점","▁소 립","▁미 디어","▁성 장","▁영 국의","▁내 보","▁현 상을","▁생 겨","▁formula_1 는","▁어 떻게","▁5 00","▁최 종","▁받 게","▁바 람","▁바 로","▁경우 도","▁평 면","▁199 1년","▁위해 서","▁201 5년","▁프로 토","▁P 2P","▁로 마","▁법 률","▁그러나 ,","▁이용 할","2년 에","▁안 익태","3년 에","▁문제 에","7년 에","▁게 이지","▁사이 에서","▁저 장","▁198 7년","▁이루 는","▁항 등","▁태 양","▁질 문","▁194 8년","▁C P","▁방법 으로","▁값 이","▁위키백과 는","▁판 결","로서 의","▁설명 할","▁디 리클레","▁제공 한다.\r\n","▁191 9년","▁내용 을","학생 회","▁중화 인민공화국","▁유일 한","▁혐의 로","▁네트워 크","▁너 무","' 가","' 를","' 으로",". 3","▁ n","▁ ~","▁ 골","▁ 록","▁ 얼","▁ 왼","▁ 징","▁ 콜","▁ 쿠","▁ 티","▁ 품","▁ 흐","▁ 흡","▁ 흥","▁ 라는","▁ 레이","구 려","권 의","기 술","남 준","니 다.\r\n","당 을","당 한","들 도","르 게","린 다.\r\n","미 분","부 에","분 을","세 대","수 이다.\r\n","스 키","스 핀","아 가","없 이","으 므로","이 므로","인 ,","장 ,","전 쟁","제 는","조 를","캘 리포","타 가와","통 일","하 에","함 에","했 으나,","회 가","▁있 지","▁대 법","▁대 입","▁사 라","▁그 림","▁그 대로","▁정 리에","▁가 져","▁전 후","▁공 화국","▁자 원","▁중 반","▁제 한","▁아 들","▁아 버지","▁인 하여","▁주 의","▁보 일","▁보 인다.\r\n","▁모 양","▁부 등","▁소 개","▁다음 의","▁고 등학교","▁선 정","▁않 아","▁해 를","부터 는","▁변 형","▁어 린","▁없 었","▁스 스로","▁마 을","▁우 리가","▁대통령 에","▁재 판","▁시작 하였다.\r\n","▁여러 가지","▁배 우","▁물리 량","▁달 리","▁표현 할","▁광 복","▁얻 을","▁현재 는","▁하나 로","▁197 0년","▁197 1년","▁소프트웨어 를","▁과학 적","▁지역 의","▁본 래","▁가능 하다.\r\n","▁갖 는다.\r\n","▁구성 된","▁의미 를","▁참여 정부","▁선형 대수","▁만들어 진","▁조건 을","▁범 주","▁둘 러","▁애국가 의","▁마이크로 소프트","▁봉 하","▁아쿠 타가와","캘리포 니아","' 이라고","E E","’ ,","▁ π","▁ 『","▁ 끊","▁ 녹","▁ 딸","▁ 뛰","▁ 몽","▁ 묻","▁ 쇼","▁ 숫","▁ 왜","▁ 콘","▁ 펼","▁ 에서","개 발","계 로","고 라","구 ,","구 가","구 는","규 모","금 을","도 시","론 과","리 기","링 크","명 /","사 이트","선 과","선 에서","에 ,","원 에서","위 가","음 악","이 던","재 판","토 르","했 으며","화 로","화 에","▁이 하","▁대 륙","▁수 치","▁기 자","▁기 사를","▁전 화","▁하 다.\r\n","▁하 지만,","하였 으며","▁인 류","00 년","▁보 였다.\r\n","▁구 체","▁조 작","▁의 하여","▁여 겨","▁만 나","▁고 구려","▁미 지","▁표 면","▁해 군","▁오 래","▁오 후","▁내 려","▁formula_1 8","▁거 주","▁설 문","▁경우 는","▁대통령 을","▁차 이","▁한국 어","▁입 자의","▁공간 을","▁남 아","▁체 르","▁체 첸","▁명 령","▁재 임","▁교 수","▁시작 되었다.\r\n","▁종 합","▁201 2년","▁확 실","▁속 력","▁속 도를","▁직 후","▁위키 미디어","▁쓰 이는","▁간 주","▁안 에","▁컴퓨터 를","▁사람 들은","▁수학 의","▁일반 화","▁저 서","▁라 틴","▁후보 는","▁창 조","▁허 용","▁호 환","▁인구 밀","▁디 지털","▁개념 은","▁우크라이나 의","▁시스템 을","▁밝 히","▁플 레이","▁맞 추","▁밀 러","▁M S","▁잘 못","▁누 구","▁페 이지","▁물질 을","▁전자기 파","▁좋 은","▁다르 다.\r\n","▁불구 하고","▁덧 셈","▁빅 토르","▁앨 범","▁불확 정","▁칸토 어","\" 는",". 5","2 0","L L","a r","s i","~ 1","▁ V","▁ s","▁ 〈","▁ 궁","▁ 몸","▁ 벨","▁ 싸","▁ 액","▁ 탐","▁ 헬","값 은","공 학","공 화","과 를","구 의","권 으로","내 는","노 스케","달 러","당 의","디 아","란 드","량 은","리 히","모 가","물 의","비 트","생 활","시 와","약 을","어 들","위 에","위 의","이 션","전 에","전 의","진 화","쳤 다.\r\n","페 인","페 이지","하 지만,","하 다가","향 을","▁있 으나,","▁수 리","▁수 수","▁수 론적","▁사 무","▁정 도로","▁가 산","▁2 년","▁전 략","▁전 반","▁전 투","▁공 용","▁공 리를","▁위 반","▁자 본","▁유 엔","▁보 유","▁방 일","▁구 하는","▁비 난","▁비 례","▁나 머","▁발 간","▁여 성","▁관 광","▁실 수의","▁만 에","▁만 주","▁통 과","▁사용 된","▁사용 되었다.\r\n","라고 도","▁원 칙","▁물 의","▁3 1","▁해 외","▁있는 데","▁내 각","▁작 업을","▁변 인","▁없 이","▁초 대","▁초 반","▁진 출","▁차 이가","▁알 고","▁공간 에","▁나타 난다.\r\n","▁독 자","▁체 결","▁명 ,","▁199 7년","주의 를","▁회 의","▁정의 된다.\r\n","▁직 교","▁함수 가","▁함수 이다.\r\n","▁통해 서","▁에너지 가","▁이용 해","▁노동 자","▁참 고","▁저 그","▁당시 의","▁근 삿","▁활 발","▁사회 적","▁목 적으로","▁196 2년","▁이름 으로","▁허 수","▁문서 의","▁0 이","▁위치 한","▁발표 했다.\r\n","▁순 서","▁기본 적인","▁비판 을","▁행렬 식은","▁책 임","▁필요 로","▁백 남준","▁오일러 는","▁제외 한","▁엄 밀","▁돈 을","▁DN A","▁먼 저","▁체르 멜","' 이","- 프",". 4","5 0",": \r\n","B C","T A","▁ e","▁ 겸","▁ 빚","▁ 삭","▁ 슬","▁ 윌","▁ 젊","▁ 좀","▁ 즐","▁ 짝","▁ 짧","▁ 택","▁ 털","▁ 희","▁ 으로","▁ °C","》 에서","계 수","교 회","느 냐","단 을","당 은","대 백과사전","더 라도","동 에","드 르","료 를","만 큼","문 화","베 이","보 안","뿐 만","산 을","선 은","세 계","소 수","속 도로","수 학","스 타크래프트","어 서","었 고,","원 과","일 부터","임 스","장 드르","제 곱","지 에서","쪽 에","천 만","트 가","틀 랜","하 자.\r\n","▁이 념","▁이 뤄","▁이 온","▁이 인","▁있 으나","▁있 음을","▁1 차","▁대 체","▁수 렴","▁수 를","▁수 용","▁사 장","▁정 신","▁정 수의","▁한 다는","▁2 8","▁일 치","▁하 기","▁중 국의","▁제 정","▁제 주","▁제 임스","▁인 한","▁노 건","▁주 민","▁보 이","▁나 누","▁서 양","▁분 명","▁사용 자가","▁\" 노","▁3 8","▁불 법","▁200 5년","▁결 성","▁집 행","▁양 성","▁formula_1 에","▁없 었다.\r\n","▁마 련","▁에 르","이나 ,","▁말 을","▁바 이","▁출 간","▁그러 한","▁199 6년","▁집합 을","▁크 기를","▁정의 한다.\r\n","▁확 대","되었 으며","▁언 급","▁언 제","▁쓰 일","▁서울 특별","▁에너지 와","▁논 문을","▁임 명","▁국가 를","▁점 에서","▁formula_2 0","▁요 청","▁근 거","▁달 라","▁198 0년대","운동 을","▁검 토","▁formula_3 1","▁후보 로","▁후보 의","▁현재 까지","▁못 한","▁194 9년","▁방법 은","▁분야 에","▁현대 그룹","▁민 간","▁갖 고","▁완 비","▁인구 가","▁높 아","▁순 간","▁탄 압","▁용 어","▁이것 을","▁제공 하는","▁뜻 을","▁승 강","▁승 리","▁변화 를","▁결합 을","▁16 일","▁S U","▁속도 가","▁혼 란","▁자료 를","▁협 상","▁작품 을","▁각각 의","▁앙카 라는","▁막 스","▁글 을","▁테 란","▁테 일러","▁다항 식","▁준 비","▁원주율 을","▁T V","▁대상 으로","▁민족 주의","▁소수 점","대학교 ,","▁깊 은","▁임시 정부","▁퇴 임","▁르 장드르","▁뉴턴 의","시킨 다.\r\n","▁겨 울","▁베르 누","명/ km2","▁체르멜 로","▁젊 은","\" 라는","- 아","- 켓","E T","O M","e s","i l","o u","▁ c","▁ d","▁ 밤","▁ 습","▁ 잇","▁ 쥘","▁ 착","▁ 캐","▁ 라고","▁ 캘리포니아","》 는","가 를","개 월","계 에서는","교 육","국 이","권 이","나 ,","단 은","단 의","대 가","델 브","독 교","드 에서","듬 해","렝 켈","로 로","료 로","리 올","밖 에","부 가","비 탈","수 ,","수 록","스 탄","시 의","어 와","었 으며,","에 만","였 고,","음 이","이 와","이 므로,","인 데,","자 유","적 은","조 라","치 의","포 먼","프 가","학 년","항 공","▁이 적","▁이 제","▁이 듬해","▁있 다","▁수 사","▁다 이","▁가 우스","▁기 타","▁기 독교","▁공 부","▁위 원","▁위 에서","▁시 내","▁시 장","▁유 전","▁아 무","▁인 기를","▁주 지","▁방 출","▁구 할","▁의 하면","▁나 이","▁여 전히","▁소 유","▁다음 을","▁통 하여","▁\" 이","▁3 2","▁않 고,","▁세 워","▁세 종","▁오 전","▁집 권","▁무 렵","▁스 위","까지 의","▁이후 로","▁대한민국 에서는","▁우 리","▁추 정","▁진 술","▁진 화","▁바 꾸","▁바 다","▁강 화","▁신 뢰","▁차 별","▁입 자는","▁명 의","▁적 극","▁201 8년","▁직 선","▁위키 는","▁논 리","▁문제 로","▁배 열","▁배 치","▁국가 보안","▁formula_2 5","▁《 스타크래프트","▁후보 를","▁항 공","▁필 수","▁공식 적인","▁민주 화","▁방법 이","▁과학 자","▁피 타","▁운영 하는","거나 ,","▁분야 에서","▁법칙 에","▁법칙 은","어진 다.\r\n","▁게임 을","▁이름 은","▁완 전","▁힘 의","▁디 랙","▁증명 할","▁생각 할","▁우크라이나 는","▁특히 ,","▁뜻 하는","▁서비 스를","▁채 취","▁채 택","▁질량 을","▁혼 합","▁만들 었다.\r\n","▁드 라이","▁15 일","▁상대 성","▁상대 적으로","▁데이터 를","▁브라 -켓","▁물질 의","▁헌법 재판","하려 는","▁기반 으로","▁퍼 포먼","▁맥스웰 은","▁여론 조","▁간단 한","▁단순 한","▁단순 히","▁프랑 스","▁표기법 은","▁월 드","▁낮 은","▁이외 에도","▁강력 한","▁몽 골","공화 국의","-프 렝켈","▁체르멜로 -프렝켈","▁쥘 리아","\" 으로","\" 이라는",". 6","/ ,","2 1","3 의","4 1","? \r\n","▁ i","▁ 덕","▁ 삶","▁ 폰","건 설","계 는","과 ,","구 와","군 을","기 고","는 지","당 에","두 환","렀 다.\r\n","력 에","로 의","론 은","름 을","름 이","리 스","만 여","면 을","받 아","방 을","번 호","사 하는","산 이","상 대","세 가","스 러","스 에서","시 대","양 숙","어 지는","여 서","오 조라","우 리","인 과","조 건","좌 표","쪽 의","창 호","체 에","타 카","텐 서","페 르","해 석","▁이 른","▁대 략","▁대 변","▁사 설","▁그 를","▁한 자","하는 데,","or e","▁전 에","▁전 두환","▁일 관","▁공 격","▁하 면,","▁자 치","▁시 기","▁중 단","▁중 에서","▁중 학교","▁아 주","▁인 식","▁주 었다.\r\n","▁구 현","▁모 아","▁의 사","▁문 고","▁부 여","▁실 수는","▁동 아","▁도 심","▁도 와","▁성 분","▁후 반","▁200 0년대","▁오 비탈","▁반 지","▁양 변","▁무 기","하기 로","▁변 의","▁스 타","▁거 듭","▁거 부","▁받 는","▁대통령 으로","▁강 점","▁강 제","▁강 조","▁되 기","▁출 생","▁199 4년","▁방정식 으로","▁적 이","▁정의 에","▁위해 서는","▁외 부","▁종 종","▁것이 라고","▁쓰 는","▁간 의","▁안 창호","▁임 기","▁컴퓨터 의","▁김 해","▁사이 트","▁노동 운동","▁식 은","▁formula_3 0","▁코 리올","▁현재 의","▁합 법","▁사건 을","▁사건 이","▁197 5년","▁197 0년대","▁공식 은","▁감 지","▁18 8","▁분야 의","▁폴링 의","▁게임 은","▁게임 이","▁정보 는","▁발전 을","▁위치 를","해서 ,","▁발표 한","▁순 수","▁권 한","▁권 양숙","▁있었 던","▁금 지","▁삼각 함수의","▁만족 하는","▁연산 자","▁질량 이","▁업 무","▁검찰 은","▁급 격","▁다항 식의","▁동치 이다.\r\n","하려 고","▁해당 한다.\r\n","▁그것 은","▁삼각형 의","▁홍 콩","▁특별 한","▁보여 주","▁견 해","▁이로 써","▁흔 히","▁지지율 이","ch em","▁블리자 드","▁류 노스케","▁MS -DOS","▁국가보안 법","\" ,","\" 에",", \r\n","/ 2","3 2","m m","▁ p","▁ t","▁ y","▁ z","▁ 납","▁ 냉","▁ 닫","▁ 컨","▁ 혜","▁ 훨","》 을","가 의","개 ,","곳 에서","공 항","광 역","국 ,","국 은","그 라","단 위","도 르","도 와","동 산","되 며","라 우","력 은","르 고","를 린","리 엄","메 데","멘 트","물 은","받 은","버 거","보 는","분 야","비 를","스 에","스 턴","시 안","시 킬","실 을","어 야","용 으로","위 키","이 다.","자 리","적 ,","적 분","제 의","직 을","쪽 으로는","치 고","치 면서","케 시마","키 메데","태 우","테 이","해 진","했 지만","화 와","회 는","▁이 사","▁있 지만","▁대 다","▁사 고","▁사 태","▁그 에","▁한 다고","▁가 나","▁기 후","▁전 직","▁전 자의","▁일 상","▁공 리는","▁공 학은","▁하 게","▁지 식","▁자 택","▁시 행","하였 으나,","▁유 래","▁유 신","▁아 내","▁아 오조라","▁인 간의","▁주 소","▁보 면","▁경 기도","▁비 가","▁모 순","▁나 뉘","▁나 뉜","▁연 주","▁국 소","▁문 재","▁개 통","▁상 승","▁분 산","▁분 수","▁때 에는","하고 자","▁사용 되는","▁고 향","▁미 군","▁동 남","▁동 물","▁물 을","▁물 이","▁3 6","▁3 년","▁3 차원","▁선 고","▁도 모","▁후 ,","▁세 운","▁계 기가","▁불 과","▁오 리","▁생 명","▁formula_1 7","▁없 다고","되어 야","▁스 페인","▁5 0","▁초 에","▁추 모","▁말 은","▁경우 에","▁경우 에는","▁되 기도","▁입 당","▁입 장을","▁형 식","▁적 절","▁회 복","▁크 기","▁크 림","▁외 에","▁확 보","▁직 각","▁직 원","▁여러 차례","8년 에","▁에너지 로","▁이용 하는","▁임 금","▁컴퓨터 가","▁수학 에서,","▁문제 는","▁산 소","▁데 에","▁이론 의","▁점 을","▁formula_2 1","▁물리 학의","▁요 한","▁자유 롭게","▁식 민","▁198 6년","▁리 그","▁리 처","▁편 차","하면 \r\n","▁하나 이다.\r\n","▁formula_4 의","▁주장 하는","▁소프트웨어 는","▁민주 주의","▁196 1년","▁현대 의","▁가능 성이","▁정치 인","▁완 성","▁구성 하는","▁디 자인","▁발견 된","▁발견 한","▁순 환","▁측 근","▁증명 하였다.\r\n","▁시대 의","▁시간 이","이라 며","▁이것 이","▁올 라","▁치 료","▁조사 에서","▁원소 는","▁원소 를","나라 의","▁지원 을","▁투 신","▁원자 핵","▁평가 를","▁베 스핀","▁베 를린","▁선거 에서","▁체제 의","▁친 구","▁내용 이","▁독립 운동","▁오일러 의","▁이루어 져","▁정권 의","▁대수 적","▁B BS","하려 면","▁불교 는","▁물체 가","▁대해서 도","▁수준 의","▁태어 난","▁프랑 스의","▁최고 의","▁하이젠베르 크","▁그래 픽","▁허가 서","▁제시 하였다.\r\n","▁놓 고","▁뿐 만","▁정상 문","▁경찰 은","▁넓 은","▁29 일","▁윤치호 가","▁나오 는","▁주기 율","▁중성 미","▁히라가 나","정상 회담","▁아르 키메데","▁내보 냈다.\r\n","▁흡 수","▁뛰 어","▁불확정 성","▁나머 지","▁노건 평","▁이른 바","chem >","▁훨 씬","\" 로","\" 을","% 의","' 는","' 은","' 의","7 만","T V","l e","o p","r a","▁ Z","▁ 맵","▁ 붕","▁ 삽","▁ 쇠","▁ 숙","▁ 십","▁ 써","▁ 옛","▁ 짓","▁ 컬","▁ 횟","간 다.\r\n","공 을","구 에","구 조","군 은","기 인","너 스","노 조","단 에","동 차","되 게","되 자","등 의","력 ,","론 에","류 가","마 트","만 의","명 에","모 를","문 제","물 질","반 응","부 와","비 쇼","상 에","서 ,","소 설","시 를","안 을","어 져","었 던","위 에서","의 가","인 먼","인 들이","인 들을","자 들","자 동차","전 이","졌 고,","주 기","준 다.\r\n","지 점","통 합","함 수가","했 을","했 는데,","행 렬","형 을","회 에","▁이 래","▁이 중","▁이 끌어","▁1 .1","▁대 개","▁대 기","▁대 량","▁대 립","▁대 체로","▁대 규모","▁수 반","▁사 례","▁그 중","▁그 들은","▁그 들의","▁정 리를","▁다 니","▁기 관","▁일 이","▁하 인","▁지 난","▁지 닌","▁지 수","▁지 정","▁등 록","▁것 도","▁제 국의","▁인 근","▁노 조","▁노 태우","▁주 어졌","▁보 는","▁보 호","▁방 식으로","▁조 문","▁연 관","▁문 예","▁개 선","▁개 정","▁상 징","▁부 터","▁분 해","▁통 제","▁통 치","▁사용 한","▁사용 하였다.\r\n","▁고 정","▁동 료","▁물 론","▁3 일","▁3 가지","▁후 에는","▁세 대","▁' 대한","▁해 안","▁계 열","▁불 가","▁불 린다.\r\n","▁오 스","▁오 직","▁반 박","▁반 발","▁반 면,","▁스 포","▁각 의","▁받 지","▁이후 에","▁이후 에는","▁4 5","▁예 측","▁추 구","▁추 천","▁진 동","▁말 로","▁역 학","▁평 양","▁되 면서","▁공간 이다.\r\n","▁나타 나는","▁출 발","▁정의 를","▁외 계","▁종 료","▁장 의","▁장 치","▁복 사","▁속 에서","▁증 거","▁에너지 의","▁6 0","▁6 4","▁산 술","▁존재 하는","▁국가 의","▁점 이","▁노동 자들이","▁참 석","▁세계 에서","▁식 이","▁198 2년","▁198 4년","▁자연 과","▁자연 수","▁것으로 ,","▁포함 하는","▁formula_4 5","▁197 4년","▁목 적","▁관계 는","▁196 7년","▁피 시","▁피 해","▁분야 이다.\r\n","▁프로그 래","▁정보 가","▁창 간","▁창 립","시키 고","▁구성 되어","▁발견 하였다.\r\n","▁측 은","▁수도 권","▁195 0년","▁카 페","▁시대 를","▁권 위","▁물리학 자","▁살 아","▁용 어는","▁과정 에","▁버 스","▁192 4년","▁상태 에","▁사실 상","▁길 이를","▁지원 하는","▁투 쟁","▁평가 가","▁베 이","▁기록 했다.\r\n","인민 공화국의","▁조건 이","▁친 일","▁농 업","▁둘 레","▁다항 식은","▁F TA","▁원주율 은","▁되었 고,","000 만","▁운동량 의","▁커널 은","▁넘 어","▁단일 화","▁쿼 크는","▁웹 사이트","▁조선민주주의 인민공화국의","▁엔트로피 는","▁늘 어나","▁100 만","▁이르 러","▁정확 한","▁무리 수","▁빠 르게","▁플랑 크는","▁키 노","▁엄 청","▁기저 를","▁25 일","▁비교 적","▁푸 리에","▁외국 인","▁유도 할","▁찬 양","사건 ,","▁모습 을","▁의혹 이","▁지하 철","▁멀 티","▁리눅 스","▁잘못 된","▁방일 영","▁백남준 은","▁언제 나","▁드라이 브","▁리처 드","▁주기율 표","▁붕 괴","\" 와","- 4","2 ,","P C","g in","o m","o o","▁ >","▁ ×","▁ 꼭","▁ 꼴","▁ 끌","▁ 낳","▁ 넣","▁ 돕","▁ 띄","▁ 띠","▁ 맺","▁ 묶","▁ 뮌","▁ 벗","▁ 뽑","▁ 셀","▁ 컴","▁ 팜","▁ 획","▁ 까지","▁ 끌어","》 ,","》 의","가 에","경 을","공 간의","구 에서","군 이","기 관","남 도","능 을","다 ”","드 시","라 면","량 을","리 우","면 에서","명 은","본 부","분 포","사 상","산 업","상 호","상 으로","상 에서","석 ,","시 로","식 과","었 다는","역 을","이 면","이 지만,","작 품","재 를","정 수","정 의","지 니","지 도","지 어","천 ,","체 와","치 지","케 이션","켤 레","탈 리아","트 남","티 즌","펜 하","하 므로","하 르트","한 다면","향 의","화 되어","▁이 끌","▁이 탈리아","▁1 호","▁1 위를","▁대 대","▁대 형","에서 부터","▁수 입","▁수 출","▁사 퇴","▁정 착","▁다 수","▁가 타카","▁기 각","▁전 혀","▁공 학의","▁공 집합","▁하 며","▁하 기도","▁지 니","▁지 표","▁지 휘","▁지 식을","▁자 체","▁시 기에","▁유 대","▁유 입","하여 야","▁주 한","▁구 축","▁나 와","▁나 중에","▁나 아가","▁서 술","▁부 동산","▁분 열","▁실 질","▁따 로","▁만 은","▁통 상","▁원 리를","▁고 안","▁미 래","▁동 아시아","▁표 본","▁도 스는","▁성 소수","▁해 가","▁해 방","▁계 기로","▁오 사","▁결 론","▁반 대로","▁내 놓","▁단 결","▁단 어","▁프 리","▁어 렵","▁스 크","▁스 마트","▁5 ,","▁5 년","▁특 성","▁특 성을","▁우 변","▁운동 이","▁신 라","▁역 대","▁파 병","▁한국 은","▁되 면","▁남 겼","▁남 상","▁포 인","▁그러 므로","▁체 포","▁체 비쇼","▁회 장","▁시작 된","▁종 로","▁201 7년","▁것이 었다.\r\n","되었 으나","▁언 어를","▁미국 에","▁연구 는","▁쓰 여","▁쓰 이고","▁서울 시","▁삼 국","▁삼 성","▁열 역학","▁국가 로","▁formula_2 2","▁formula_2 4","▁요 소","▁벡터 곱","▁건 축","▁자유 를","▁식 으로","▁달 하는","▁198 9년","▁표현 이","▁formula_3 5","▁얻 었다.\r\n","▁합 병","▁포함 한다.\r\n","▁포함 하고","▁formula_4 0","▁9 5","▁공식 을","▁목 소","▁소프트웨어 의","▁18 6","▁18 7","▁196 9년","▁196 0년대","▁실험 은","▁청 년","▁청 소","▁힘 이","▁결과 가","▁발표 하였다.\r\n","▁철 학","▁따르 는","▁변화 가","▁타 이","▁언론 의","▁길 이는","▁책 을","▁메 모","▁네 이","▁업 체","▁유리 수의","▁조건 들이","▁체제 를","▁기능 이","▁데이터 베이","▁정책 을","▁도입 하였다.\r\n","▁터 치","▁등장 하는","▁라이 프","▁이루어 졌다.\r\n","▁넘 는","▁탈 당","▁대선 에서","▁레 닌","▁그것 이","▁최근 에는","▁PDA 의","▁그렇 게","▁보도 했다.\r\n","▁실패 한","▁그래 서","▁23 일","▁휴 대","▁확인 할","▁달러 를","▁대칭 을","▁일으 키","▁지금 은","▁유한 한","▁특징 을","▁광고 를","▁움직 이는","▁낙 선","▁이야 기","▁수소 결합","▁그런 데","스포 츠","▁간첩 단","▁훈 련","▁국무 총","▁동일 한","▁치러 진","프리 카","▁판결 을","학생회 연합","▁징 역","▁콜 라","▁레이 블","▁인구밀 도","▁누구 나","▁삭 제","▁윌 리엄","델브 로","▁다이 슨","▁코리올 리","▁나뉜 다.\r\n","▁스포 츠","▁피시 방","▁뮌 헨","상호 작용","\" 이라며","% 가","- 3",". 8",". 9","2 00","6 0","6 대","E L","o f","t er","▁ b","▁ 맹","▁ 먹","▁ 밴","▁ 셈","▁ 왓","▁ 척","▁ 촉","▁ 텔","▁ 햄","▁ .\r\n","▁ 링크","》 를","》 에","가 ,","가 가","관 은","군 의","그 레이","기 구","네 거","니 즘","당 과","데 이","되 면","된 다는","두 고","드 가","등 을","디 터","량 이","로 봇","로 운","류 를","르 타","리 지","리 에서","마 을","모 는","미 를","받 고","받 았다.\r\n","방 법","보 다는","비 아","사 람","상 은","색 편","생 물","석 을","선 으로","세 의","속 운동","시 장","식 ,","안 이","연 산","용 을","율 을","이 에","인 에","일 본","자 치","정 에","조 의","조 차","지 ,","쪽 은","철 도","카 야","코 프","크 를","튀 르크","트 와","틀 넷","파 가","파 의","표 를","프 레","플 러","하 겠","학 에","한 다면,","형 은","화 ,","▁이 라","▁이 고,","▁사 전","▁그 럼","▁정 도를","▁정 도의","▁다 수의","▁가 설","▁일 대","▁공 약","▁공 부를","▁위 험","▁하 계","▁하 루","▁하 우스","▁자 격","▁자 발","▁등 가","하였 는데,","▁제 대로","▁유 니","▁유 전자","▁아 민","▁아 칸","▁아 프리카","▁주 고","▁주 는","00 만","▁보 면,","▁보 도를","▁보 냈다.\r\n","▁방 식을","▁경 상","▁경 선","▁비 로","▁비 서관","▁조 금","▁모 집","▁나 치","▁국 공","▁발 매","▁문 학은","▁개 설","▁개 입","▁상 업","▁관 습","▁부 호","▁때 부터","▁실 현","▁실 수를","▁실 시간","▁실 계수","▁따 른다.\r\n","▁또 ,","▁또 다","▁소 득","▁소 수의","▁다음 은","▁사용 하고","▁고 문","▁고 용","▁표 제","▁선 포","▁않 으면","▁도 구","▁도 출","▁운 용","▁' 한","▁해 양","▁해 인","▁오 픈","▁집 계","▁집 필","▁내 에서","▁양 수","▁스 트","까지 도","▁마 주","▁5 0%","▁이후 의","▁이후 에도","▁4 1","▁4 개의","▁대한민국 에서","▁말 에","▁역 학에서","▁평 행","▁한국 인","▁한국 대학","▁남 은","▁독 재","▁더 한","▁교 환","▁회 사","▁크 롤","▁행 정부","▁시작 하여","▁위해 ,","▁종 이","▁확 립","▁학 습","▁속 에","▁속 력이","▁가지 는","▁가지 의","되었 다고","▁연구 에","▁매 년","▁매 체","▁에너지 ,","▁안 의","▁컴퓨터 는","▁사람 과","▁존재 한다는","▁약 속","▁정부 를","▁정부 에","▁게 시","▁게 다가","▁노동 자의","▁formula_2 6","▁formula_2 는","▁formula_2 에","▁물리 적","▁당시 에는","▁근 본","▁10 일","6년 에는","▁라 디오","▁198 1년","▁표현 은","▁광 역","▁편 이다.\r\n","▁얻 어","▁총 재","▁총 선에서","▁북 부","▁하나 는","▁formula_4 6","▁사회 의","▁공식 에","▁태 어나","▁주장 한다.\r\n","▁C E","▁C 를","▁지역 은","▁중심 을","▁본 질","하면서 ,","로서 는","▁문서 는","▁0 인","▁성질 이","▁앙 고라","▁195 0년대","▁카 메","▁카 터","▁PC 방","▁활동 에","▁있었 으며,","▁지지 를","▁금 융","▁시스템 의","▁철 도","▁복소 수를","▁제1 차","▁192 3년","▁193 6년","▁만족 시킨다.\r\n","▁서비 스는","▁행렬 의","▁된 다는","▁비롯 해","▁메 이지","▁천 문","▁응 답","▁줄 어들","▁네 티즌","▁업 그레이","▁야 스","▁혼 자","▁191 0년","▁아래 에서","▁만들 고","▁산업 별","▁앞 서","▁패 러","▁아니라 ,","▁등장 하였다.\r\n","▁파일 을","▁차지 하고","▁고전 적인","▁빛 이","▁서버 를","▁노동조합 의","▁쌍 대","▁이유 는","▁프로젝트 의","▁수상 했다.\r\n","▁헤 이","▁엔트로피 의","▁N LL","▁L G","하거나 ,","▁그렇 다면,",".. .","▁소련 의","▁의원 은","▁침 략","▁발언 을","▁재단 은","▁유사 한","▁불가능 한","▁일정 하게","전자 기","▁변호 사","▁클린턴 은","▁뇌 물","▁제목 의","▁페르 미","▁본격 적인","▁썼 다.\r\n","▁옮 겨","▁홈 페이지","▁정주 영","▁관점 에서","▁둘러 싸","▁오래 된","▁승강 기","ore a","▁동아 일보","▁동남 아시아","▁도모 나가","▁프로그래 밍","▁체비쇼 프","▁왓 슨","\" 고","' 에서","/ s","8 6","E C","a \"","e c","e d","h e","o b","o s","▁ J","▁ 긍","▁ 꾸","▁ 됐","▁ 뒷","▁ 렙","▁ 몫","▁ 뿌","▁ 샌","▁ 샤","▁ 섞","▁ 숭","▁ 쉬","▁ 싯","▁ 씨","▁ 억","▁ 옆","▁ 잔","▁ 쟁","▁ 펜","▁ 헨","▁ 됐다.\r\n","▁ 텐서","▁ 켤레","가 인","값 이","개 국","겨 레","공 간","관 리","교 ,","국 에","권 은","극 을","근 혜","누 리","단 체로","당 했다.\r\n","대 와","대 표","데 미","돌 프","됨 에","드 ,","드 로","들 로부터","라 ,","랐 다.\r\n","력 으로","로 즈","론 에서","리 케이션","마 니아","만 으로","배 우","부 로","부 르크","브 라","사 관","상 과","서 에","서 울","석 은","선 형","섰 다.\r\n","세 에","소 에서","속 도는","수 라고","씨 는","아 노","안 은","연 맹","예 프","온 하르트","올 림픽","워 제","으 므로,","은 \r\n","이 온","이 지만","인 데","장 인","장 학","전 에서","졌 으며,","즈 미","진 을","짜 리","차 가","총 학생회연합","층 의","킨 토","터 테","토 로","투 쟁","트 ,","팅 겐","평 화","하 나","하 다","한 다","해 보","헌 을","혁 명","혔 다.\r\n","호 회","화 되었다.\r\n","회 ,","힌 다.\r\n","▁이 곳","▁이 집","▁이 항","▁이 들을","으로 도","▁대 답","▁대 비","▁대 의","▁대 학생","▁수 증","▁사 후","▁사 업을","▁그 려","▁그 로","▁그 룹","▁정 렬","▁다 중","▁가 질","▁기 억","▁2 만","▁19 일","▁공 기","▁공 중","▁공 통","▁위 와","▁하 위","▁지 미","▁자 원을","하였 다고","▁제 5","▁유 죄","▁아 카","▁인 기","▁주 인","▁보 스","▁경 계","▁의 무","▁나 눈","▁연 루","▁국 호를","▁발 해","▁서 민","▁문 학의","▁문 자를","▁문 학을","▁개 편","▁상 을","▁상 의","▁상 수를","▁부 인","▁분 단","▁때 의","▁실 용","▁소 거","▁소 송","▁소 스","▁만 의","▁사용 되고","▁원 시","▁원 점","▁\" b","▁고 급","▁고 종","▁고 조선","▁미 세","▁미 시","▁동 계","▁동 부","▁물 건","▁3 5","▁선 호","▁성 서","▁성 장을","▁후 원","▁세 무","▁계 에","▁오 스트","▁반 공","▁반 드시","▁내 세","▁formula_1 가","▁무 교회","▁작 사","▁프 랭","▁변 수의","▁노무현 과","▁노무현 을","▁5 ·1","▁거 론","▁거 짓","▁거 치면서","▁이후 ,","▁4 ,","▁4 0","▁대한민국 과","▁예 이다.\r\n","▁진 학","▁일본 인","▁말 하는","▁강 의","▁신 앙","▁나타 낸","▁남 부","▁명 확","▁재 학","주의 자","▁방정식 이다.\r\n","▁존 중","▁적 은","▁회 원","▁장 악","하지 는","▁미국 과","▁연구 가","▁매 개","▁매 킨토","▁서울 은","▁서울 을","▁서울 에서","▁안 에서","▁사람 을","▁사람 의","▁수학 자들은","▁존재 할","▁국가 에","▁이론 적으로","▁점 화","▁사이 에는","▁노동 인","▁노동 자들은","▁formula_2 3","▁formula_2 가","▁참 가","▁새 누리","▁저 술","5년 에","5년 에는","▁근 의","▁8 0","▁건 강","▁활 약","▁세계 적인","▁식 의","▁표현 을","▁자연 수를","▁자연 로그","▁formula_3 7","▁리 서","▁편 리","▁합 쳐","▁할 당","▁북 방","▁formula_4 1","▁formula_4 3","▁197 9년","▁사회 에","▁사회 주의","▁194 0년","▁관계 에","세기 에","▁196 8년","▁196 4년","▁박 근혜","▁지역 으로","▁구조 와","▁법칙 과","▁계산 을","▁계산 할","▁계산 하였다.\r\n","▁현대 자동차","▁값 으로","▁값 이다.\r\n","▁국민 들의","다\" 는","다\" 면서","▁관련 하여","▁창 당","▁창 시","로서 ,","▁개발 한","▁프로그램 의","▁프로그램 이","▁중국 어","▁대부분 이","▁성질 에","▁카 를","▁이상 이","▁증명 하는","▁엔 터테","▁토 론","▁기본 적으로","▁있었 고,","▁인터 뷰","▁비판 이","▁비판 하는","▁살 고","▁않는 다는","▁삼각 함수","▁만들어 졌다.\r\n","▁formula_6 6","▁제1 6대","▁193 9년","▁했 던","▁채 팅","▁러시아 의","▁17 일","▁밀 도","▁결합 은","▁베 트남","▁야 당","▁마이 클","▁작품 이","▁검찰 이","▁국제 단위","▁1월 에","▁사망 했다.\r\n","▁둘 째","▁담 긴","▁패 턴","▁누 피","▁하이 텔","▁브라 와","▁무한 히","▁라이 너스","▁설립 하였다.\r\n","▁슈 워제","▁정권 을","▁발생 한","▁실제 로는","▁동치 이며,","▁동치 관계","▁논란 ,","▁양자역학 은","▁연결 하는","▁노동조합 은","▁대학교 의","방정식 의","▁지구 의","▁벌 어","▁물체 는","▁생성 열","▁각운동량 은","▁남북 정상회담","▁맥스웰 의","▁늘 어","▁레 온하르트","▁그것 을","▁백과사전 은","▁이르 는","▁정확 히","▁정확 하게","▁관심 이","en t","en gin","▁제외 하고","▁그래 프","▁하였 고,","in g","▁분포 를","▁일어 났","▁일어 났다.\r\n","▁찾아 볼","▁초월 수","▁잠 시","▁향 상","▁효과 를","▁유카와 는","▁박연차 로부터","▁덧 붙","하면, \r\n","▁아인슈타인 은","▁논쟁 이","▁묘 사","▁빼 앗","▁26 일","▁화합 물을","▁운동에 너지","▁목표 로","▁24 일","▁국회의 원","▁괴 팅겐","▁충분 히","▁방응 모의","▁생겨 났다.\r\n","▁얼 마","▁봉하 마을","▁서울특별 시","ET EL","▁나이 로","▁월드 컵","도르 프","▁하인 리히","▁벗 어나","지니 어","▁성소수 자","▁오사 카","▁스마트 폰","▁포인 팅","▁레닌 그라","▁콜라 츠","▁텔 레","▁아칸 소","▁한국대학 총학생회연합","▁긍 정","▁엔터테 인먼","▁슈워제 네거","\" 은","\" 에서","- 힐베르트","1 6","3 5","4 0","5 9","6 2","M F","u r","Δ H","▁ v","▁ 굳","▁ 균","▁ 냈","▁ 듯","▁ 랭","▁ 맛","▁ 벤","▁ 벽","▁ 빨","▁ 숨","▁ 싶","▁ 씌","▁ 옹","▁ 익","▁ 촛","▁ 탑","▁ 튜","▁ 팩","▁ km2","▁ of","▁ ΔH","값 에서","고 를","고 속도로","교 가","구 간","구 에는","권 과","기 간","낱 말","노 가","니 스","니 츠","단 으로","대 문","독 립","동 이","되 거나","드 러","등 이","라 브","락 을","랫 동안","려 가","려 는","로 도","류 의","르 ,","리 즈","린 은","만 에","머 스","멤 버","면 에","면 이","무 라","미 암","백 산","버 스","법 은","법 으로","별 로","비 가","비 서관","사 각","사 이드","산 화","상 이","생 의","성 장","세 로","소 득","스 퍼","시 켰","신 을","심 을","아 의","아 버지","았 던","았 고,","어 에","에 선","연 대","였 으나","오 는","유 럽","율 은","음 에","이 론","이 치로","임 이","자 에게","정 은","제 ,","주 로","지 와","처 리","축 에","출 판","타 리","텐 츠","트 에서","틀 러","판 ,","평 균","플 레이","하 이","한 ,","함 수는","했 는데","협 회","환 으로","후 보","훼 손","히 려","▁이 날","▁이 들의","▁이 므로,","▁대 우","▁수 송","▁수 여","▁수 요","▁수 사를","▁사 는","▁정 식","▁한 때","▁한 정","▁한 족","▁한 민족","▁한 겨레","▁가 격","▁가 깝","▁가 는","▁가 상","▁기 사,","▁전 용","▁일 꾼","▁공 급","▁지 리","▁지 상","▁시 험","▁시 리즈","▁중 도","▁제 어","▁유 닉","▁유 아","▁유 행","▁유 효","▁아 랍","▁아 시안","▁인 민","▁노 사","▁주 관","▁주 된","▁주 제","▁보 장","▁방 식","▁경 성","▁조 화","▁모 듈","▁모 여","▁모 음","▁나 왔다.\r\n","▁연 세대","▁국 립","▁발 명","▁여 의","▁여 부를","▁개 별","▁개 신","▁상 수는","▁부 시","▁분 쟁","▁사용 해","▁원 의","▁원 자가","▁원 점을","▁\" R","▁고 등","▁동 위","▁3 00","적으로 ,","▁않 을","▁도 달","▁도 로","▁성 과","▁성 과를","▁세 기","▁세 이","▁' 노","▁' 이","▁해 는","▁해 도","▁불 이","▁오 랫동안","▁오 히려","▁반 도","▁반 영","▁내 외","▁현 실","▁생 긴","▁단 편","▁무 게","▁무 시","▁변 수","▁변 을","▁없 어","▁없 을","▁스 톨","▁스 테이","▁노무현 에게","▁마 찰","▁많 아","▁5 9","▁거 대","▁거 절","▁각 속도","▁설 득","▁설 이","▁설 계를","▁20 일","▁받 을","▁4 9","▁4 일","▁예 로","▁우 선","▁우 치","▁일본 어를","▁말 이","▁말 해","▁말 미암","▁바 늘","▁바 젤","▁운동 의","▁강 남","▁강 입","▁역 임","▁평 안","▁파 악","▁차 원의","▁알 렉","▁알 파","▁알 베르트","▁공간 과","▁남 쪽","▁출 연","▁명 을","▁집합 과","▁적 어도","▁회 로","▁크 기가","▁크 기는","▁행 위를","▁정의 되는","▁시작 한","▁시작 으로","▁시작 한다.\r\n","▁복 귀","▁복 용","▁확 정","▁속 도로","▁화 강","▁직 무","▁가지 며,","▁것이 라는","되었 는데,","▁미국 에서","▁매 일","▁이용 한다.\r\n","▁음 수가","▁사람 들에게","▁수학 을","이라고 도","▁문제 의","▁산 맥","▁존재 한다고","▁삼 중","▁삼 았다.\r\n","▁배 경","▁배 틀넷","▁국가 는","▁국가 인","▁이론 에","▁이론 이","▁점 유","▁새 벽","▁벡터 를","▁근 을","▁이를 테","▁세계 대","▁표현 한","▁표현 하는","베르 크","▁이루 고","▁formula_3 6","▁formula_3 라고","▁코 시","▁양자 화","▁사건 에","▁사건 으로","▁항 목","▁포함 된","▁포함 하지","▁formula_4 4","▁formula_4 8","▁197 6년","▁12 일","▁사회 진화","▁194 2년","▁194 3년","▁194 7년","▁주장 이","▁18 일","▁196 0년","▁형태 는","▁박 사","▁피 해를","▁지역 을","▁법칙 이","▁폴링 이","▁중심 의","▁위키백과 가","▁국민 통합","▁표기 한","▁민 중","다\" 며","▁청 계","▁갖 추","▁창 설","보다 도","▁완 벽","▁설명 하는","▁힘 은","▁결과 는","▁대부분 을","▁기술 을","▁기술 이","▁발표 된","▁디 스크","다. \"라고","▁195 9년","▁195 8년","▁195 2년","▁195 3년","▁PC 를","▁토 끼","▁뒤 에","▁다양 하다.\r\n","▁자신 들의","▁지지 하는","▁비판 했다.\r\n","▁처음 에는","▁물리학 과","▁물리학 상을","▁않는 다고","▁탄 생","▁탄 소","▁용 어를","▁formula_6 1","▁formula_6 는","▁플 로","이라 면","▁193 0년","▁193 3년","▁구글 의","▁I MF","이었 으나","▁사실 이","▁만족 한다.\r\n","▁했 으며,","▁formula_5 3","▁조사 한","▁조선일보 의","▁연산 자를","▁맞 아","▁심 리","▁초기 에","▁초기 의","▁17 2","▁메 이","▁천 연","▁속도 는","▁191 7년","▁자료 의","▁전쟁 을","▁선거 에","▁좌 우","▁좌 파","▁헌 정","▁필요 가","▁K K","▁내용 은","▁글 루","▁담 고","▁정책 이","▁터 미","▁통계 학은","▁브라 우","▁일본어 의","▁원주율 이","▁히 틀러","함수 이다.\r\n","▁대수 학의","▁양자역학 에서","▁가정 하면","▁노벨 상","▁들 고","▁고전 역학","▁운동량 은","▁빛 을","▁이전 에","으로서 의","▁유명 하다.\r\n","▁앙카라 를","▁대상 이","▁애국가 를","▁한반 도의","▁해당 하는","▁분류 된다.\r\n","▁로봇 은","▁로봇 이","▁폭 력","▁밖 의","▁그렇 지","▁방향 을","▁변환 을","▁열린 우리","▁빠 른","▁나라 의","▁출신 의","▁곳 에서","▁폐 지","▁유일 하게","▁R e","▁정상 회담","▁불리 게","▁불가능 하다.\r\n","▁행동 을","▁전통 적인","▁르 네","▁흔 들","▁이야 기를","▁전하 를","▁상호작용 을","▁지속 적으로","▁기호 는","▁구분 된다.\r\n","▁라이선 스를","▁쿼크 와","▁니 콜","▁어려 운","방송 ,","▁애플 리케이션","▁DN S","▁보손 은","▁화합 물","▁간첩 사건,","▁페르 시아","▁기여 를","▁기존 의","▁과거 에는","▁가까 운","▁갈등 이","▁옥 스퍼","▁기온 은","▁정주 영은","▁지도 자","▁조지 아","▁저장 된","▁CP U","▁왜 냐","달러 를","▁독자 적인","▁근삿 값","▁짝 수","스러 운","▁문재 인","▁식민 지","▁삽 입","▁주어졌 을","▁엄청 난","펜하 겐","▁대대 적으로","▁가타카 나","▁주한 미","▁청소 년","▁라이프 니츠","▁다이슨 은","▁하우스 도르프","▁혼자 서","▁렙 톤","▁아카 데미","▁오스트 리아","engin e","▁촛 불","▁말미암 아","# #",", 0",", 1","1 ,","1 0","3 0","3 만","< /","^ 2","a c","a m","i d","i t","i on","o d","o l","o t","o w","p u","u n","u s","· 전","’ 는","▁ +","▁ Y","▁ k","▁ r","▁ ’","▁ 겐","▁ 곤","▁ 궤","▁ 닮","▁ 듣","▁ 런","▁ 멘","▁ 뫼","▁ 봄","▁ 빗","▁ 셋","▁ 싱","▁ 쌓","▁ 웨","▁ 찍","▁ 첼","▁ 칭","▁ 쾰","▁ 쿨","▁ 핸","▁ 훗","▁ 힉","▁ 힐","▁ 멤버","》 가","」 ,","가 위","각 을","간 첩","간 조선","강 점","거 리","고 등","고 라스","공 으로","구 로","국 과","국 어","국 제","기 록","기 까지","뉴 스","능 력","다 며","다 :\r\n","다 르타","대 통령","데 이터","도 에서","동 을","동 의","두 에","들 ,","디 빌","라 마","러 리","러 스","런 츠","레 스","렉 터","련 의","례 가","루 스","리 즘","문 이","문 자","물 과","물 로","민 정","백 만","버 그","법 이","보 고","북 도","분 이","비 전","비 사이드","사 이","산 ·","산 과","석 이","성 애","세 히","소 ,","스 럽","스 타","습 니","시 민","신 은","신 의","실 한","실 험","안 과","안 에","안 정","어 인","었 다고","에 르","에 너지","역 은","연 히","였 고","였 으며,","유 예","율 이","으 면서","음 과","음 에도","의 적으로","이 프","인 들의","일 으","자 나","재 로","전 과","전 철","절 을","접 하는","정 이","정 에서","정 이다.\r\n","정 리를","조 사","조 직","족 이","중 이다.\r\n","중 공업","증 을","지 검","지 원","지 태","지 기도","차 를","침 을","클 리","킨 다.\r\n","테 르","특 한","티 브","판 은","판 을","하 라","학 에서,","한 다.","함 과","함 수를","해 주","해 지는","해 졌다.\r\n","햇 볕","했 지만,","행 동","헝 가","헬 름","현 ·","호 가","호 는","화 학은","회 견","▁이 화","▁이 라는","▁이 므로","▁이 스탄","▁대 구","▁대 출","▁대 회","▁대 학의","▁대 기업","에서 만","▁수 밖에","▁사 랑","▁사 슬","▁정 량","▁정 복","▁정 사각","▁다 룰","▁다 섯","▁다 소","▁다 케시마","▁가 게","▁가 공","▁가 서","▁가 출","▁가 졌다.\r\n","▁기 대","▁기 울","▁기 체","▁2 개의","▁전 산","▁일 었다.\r\n","▁일 대에","▁일 련의","▁공 무","▁공 원","▁공 작","▁공 포","▁공 학적","▁공 격을","▁공 로로","▁하 락","▁하 에","▁하 에서","▁하 면서","▁지 내","▁자 전","▁시 계","▁시 설","▁시 위","▁시 청","▁시 위를","▁등 도","▁중 세","▁중 에는","▁중 력을","▁것 \"이라고","하였 던","▁제 거","▁유 력","▁유 출","▁유 치","▁아 는","▁아 파","▁인 용","▁주 요한","▁보 내","▁보 인","▁보 편","▁보 이고","▁보 디빌","▁방 사","▁방 식은","▁방 식이","▁구 텐","▁구 간의","▁경 기","▁비 리","▁비 밀","▁비 행","▁대한 항공","▁조 카","▁모 임","▁모 스크","▁나 가","▁연 맹","▁연 분","▁연 설","▁국 방","▁발 발","▁문 법","▁개 방","▁상 한","▁상 대로","▁상 미분","▁관 여","▁부 피","▁분 모","▁분 할","▁실 린","▁소 리","▁소 위","▁소 추","▁소 형","▁통 계를","▁사용 하기","▁사용 하지","▁사용 자의","▁원 형","▁원 자의","▁\" f","▁\" n","▁고 위","▁동 경","▁동 등","▁동 맹","▁동 원","▁동 작","▁선 생","▁않 기","▁도 전","▁도 서관","▁후 인","▁세 포","▁세 상을","▁해 밀","▁계 층","▁불 거","▁불 만을","▁반 쿼","▁영 점","▁내 장","▁내 부의","▁생 존","▁양 국","▁무 료로","▁없 기","▁마 침","▁마 크","▁5 일","▁각 을","▁각 도는","▁각 지에서","▁최 저","▁받 기도","▁4 2","▁대한민국 이","▁대한민국 에는","▁예 방","▁초 래","▁추 도","▁진 공","▁일본 ,","▁일본 에서","▁일본 어는","▁말 았다.\r\n","▁바 깥","▁강 수","▁강 하게","▁신 석","▁파 견","▁파 울","▁차 가","▁차 원","▁차 이를","▁알 게","▁되 지","▁입 자로","▁공간 이","▁공간 이라고","▁출 입","▁출 현","▁포 괄","▁독 특한","▁명 이","▁명 제","▁명 으로","▁재 배","▁교 류","▁교 정","▁교 수는","▁방정식 ,","▁방정식 이","▁집합 론","▁적 합","▁크 다.\r\n","▁크 기와","▁정의 된","▁정의 하는","▁장 관","▁장 학","▁프로 세","▁로 스","▁로 켓","▁로 런츠","▁학 살","▁학 위를","▁화 학의","▁것이 며,","되었 으나,","되었 는데","▁미국 은","▁함수 로","▁함수 \r\n","▁이용 하면","▁이용 해서","▁음 의","▁논 의","▁안 기","▁컴퓨터 에","▁수학 은","▁존재 를","학교 를","학교 에","▁정부 에서","▁하는 데,","▁열 어","▁점 령","▁점 점","▁점 으로","▁formula_2 의","▁요 약","▁요 소를","▁저 명한","▁벡터 는","▁근 무","▁근 사","6년 에","▁세계 의","▁식 에서","▁달 에","▁198 5년","▁표현 될","▁표현 의","▁표현 되는","▁formula_3 2","▁formula_3 3","▁formula_3 4","▁formula_3 8","▁formula_3 는","▁코 펜하겐","▁처 벌","▁편 찬","▁편 미분","▁얻 는","▁얻 은","▁합 의","▁총 무","▁사건 과","▁항 을","▁항 의","▁폴 란드","▁197 8년","▁197 2년","▁여기 에서","▁공식 이","▁못 한다.\r\n","▁전자 를","▁주장 하였다.\r\n","▁C D","▁방법 에","▁196 3년","▁형태 가","▁과학 은","▁지역 에","▁법칙 ,","▁중심 이","▁가능 하며,","▁게임 ,","▁11 일","▁국민 은","▁판 문","다\" 라는","다\" 라며","▁청 나라","▁정보 의","▁창 제","▁호 남","▁발전 에","▁개발 에","▁화학 자","시키 기","시키 지","▁충 격","▁충 족","▁충 청","▁기술 하는","▁독일 어","가지 의","▁카 스","▁증명 은","▁뒤 인","▁브 리","다가 ,","▁의미 가","▁시대 부터","▁권 력","▁비판 하였다.\r\n","▁금 강","▁시간 을","▁경제 적","▁일부 는","▁탄 젠","▁용 도로","▁복소 평","▁5월 에는","▁제1 7","▁제공 되는","▁뜻 이다.\r\n","▁192 0년","▁193 2년","▁승 인","▁변화 에","▁뉴 스","▁돌 고","▁formula_5 8","▁원소 의","▁언론 에","▁맞 는","▁문화 를","▁심 지어","▁계속 해서","▁초기 에는","▁책 에서","▁메 시","▁결합 이","▁결합 하여","▁인터넷 의","▁D R","▁D OS","▁평가 했다.\r\n","▁속도 의","▁이어 져","▁자료 에","▁전쟁 으로","▁결정 하는","▁K orea","▁M BC","▁범 위","▁사망 한","▁급 증","▁급 수는","▁앞 에","▁정책 에","▁정책 으로","▁중앙 일보","▁번째 로","▁등장 한다.\r\n","▁이루어 지는","▁준 공","▁준 다.\r\n","▁설립 한","▁추가 로","▁왕 복","▁원주율 의","▁언어 로","▁증가 하는","▁들 면","▁도시 철","▁서버 가","▁커널 이","▁파동 의","▁앙카라 의","▁기반 의","▁인정 하는","▁대학교 에서","▁정리 한","▁대응 하는","▁아이 작","▁단일 형","▁단일 화를","▁프랙탈 의","▁귀 국","▁제국 에","▁불교 가","▁불교 를","▁헤 르","▁헤 만","▁물체 를","▁날 씨","▁퍼 져","▁각운동량 을","▁N T","▁놀 라","▁놀 이","▁관측 값에서","▁빌 헬름","▁손 으로","▁해결 하기","▁졸업 한","▁열린 집합","▁군사 정","en c","▁현상 이","▁측정 할","▁잡 지","▁formula_9 는","▁색 을","▁하였 으나","▁암 살","▁캠 프","▁이루어진 다.\r\n","▁허가 서는","▁H P","▁느 끼","▁느 낀","▁부르 는","▁확인 했다.\r\n","▁지금 까지","▁않았 던","▁당선 되었다.\r\n","▁깊 이","마스 터","▁읽 는다.\r\n","▁일어 난","▁아미노산 은","▁국회 가","▁불리 기도","▁마찬가지 로,","▁머 리","▁머 물","▁제기 되었다.\r\n","▁윤치호 의","▁답 변","▁주변 의","▁취임 하였다.\r\n","at h","is t","국민 회의","▁효과 가","▁U N","▁결혼 했다.\r\n","▁계승 한","▁생물 학","▁논쟁 을","▁공유 결합","▁유용 하게","▁특수 한","▁저작 권","▁무엇 인","▁대한제 국을","▁분향 소","▁본격 적으로","전하 를","정책 을","▁연방 의","▁명예 회","▁27 일","▁공산 주의","▁육 군","▁홈 으로","▁공화 당","▁3.1 41","▁불러 일으","▁오른 쪽","▁1995년 에","▁더불어 민주당","▁프로토 스의","▁안익태 의","▁자원 봉","▁펼 쳐","고라 스의","▁31 일","▁변인 :","▁책임 이","▁엄밀 한","▁DNA 의","▁분명 히","-아 인슈타인","▁피타 고라스","▁피타 고라스의","▁퍼포먼 스","▁거듭 제곱","자리 까지","▁자택 에서","▁비가 산","▁적절 한","▁십 진","▁지닌 다.\r\n","▁스크 린","▁네이 피","▁일대 일","▁경상 남도","▁실시간 으로","▁크롤 링","▁업그레이 드","▁싯 다르타","▁\"b \"","▁노동인 권을","▁인터뷰 에서","▁텔레 비전","백산 맥","▁국민통합 21","▁멘 델","▁뫼 비","▁훗 날","국제 공항","▁이스탄 불","▁모스크 바","\" 과","\" 를","\" 이","' 고","- 2","- 5","1 9","4 대","6 만","7 \r\n","8 00","D L","S /2","T T","i k","’ 을","’ 의","▁ )","▁ a","▁ f","▁ 갑","▁ 굴","▁ 까","▁ 늦","▁ 딴","▁ 멈","▁ 뮤","▁ 뷰","▁ 쏟","▁ 엑","▁ 율","▁ 융","▁ 층","▁ 킬","▁ 횡","▁ 훌","▁ 흘","▁ 쪽으로","▁ 햇볕","가 로","각 한","값 의","강 의","개 로","게 누","겠 다는","계 와","고 기","고 등학교","공 식","관 계를","국 통일","군 과","규 칙","그 램","금 은","금 이","기 서","까 ?\r\n","나 톨","놓 은","단 과","당 ,","대 는","데 타","도 서관","독 으로","동 ·","동 은","동 하는","들 여","들 이다.\r\n","등 록","등 포","디 어를","라 메","러 는","려 고","려 면","로 를","로 이","률 을","리 게","리 언","리 치","릭 스","마 저","마 토","만 한","먼 지","명 하게","무 기","문 서","미 와","미 트","밀 한","받 는","버 트","베 리아","변 이","부 에서","사 도","사 령","사 에서는","사 들의","산 부","산 술","산 은","산 의","산 에서","상 봉","상 태","상 하는","선 도","센 터","술 을","스 토","시 설","시 스","시 험","시 했다.\r\n","신 임을","심 이","아 에","안 으로","암 은","야 의","언 어","언 에","업 체","없 는","었 고","었 으나,","역 에서","연 ,","연 속","연 의","영 리","영 이","온 은","요 가","우 주","운 영","원 자","이 한","이 면서","입 해","자 료","자 연","자 였던","장 치","재 가","재 한","전 기","점 의","접 한","정 과","정 규","졌 고","졌 을","종 ,","주 년","주 었다.\r\n","준 은","중 앙","지 능","지 며","지 며,","진 의","진 으로","책 을","처 를","청 년","최 고","치 ,","친 다.\r\n","카 페","카 르트","커 니즘","코 비","통 계","트 라","파 일","페 이","평 양","폭 탄","표 현","품 을","하 하는","하 므로,","함 석헌","항 은","항 을","해 에","해 진다.\r\n","호 선,","화 는","환 을","▁이 호","▁1 개","▁1 천","▁1 0년","▁대 동","▁대 항","▁대 화","▁대 학에서","▁수 ,","▁수 교","▁수 와","▁수 이다.\r\n","▁수 도를","▁사 과","▁사 찰","▁그 녀","▁그 만","▁그 와","▁정 한","▁정 도가","▁한 계","▁한 양","▁한 계를","▁한 다면","▁다 를","▁가 계","▁가 수","▁가 스","▁가 위","▁가 을","▁가 치가","▁가 위는","▁가 설을","▁기 복","▁기 계를","▁2 위를","▁전 부터","▁전 체의","▁일 컫","▁일 환으로","▁공 공","▁공 과","▁위 협","▁위 기를","▁위 상을","▁하 다가","▁지 명","▁지 은","▁지 위를","▁지 나는","▁자 극","▁자 체는","▁시 ,","▁시 기를","▁시 베리아","▁중 계","▁중 소","▁중 인","▁중 일","▁중 이다.\r\n","▁중 점을","▁것 처럼","하였 다.","하였 는데","▁제 7","▁유 린","▁유 의","▁유 학","▁아 마","▁아 타","▁아 트","▁아 들이","▁인 종","▁주 파","▁주 소를","▁보 른","▁보 완","▁보 좌","▁경 남","▁경 향","▁경 호","▁경 계로","▁비 상대","▁비 선형","▁비 영리","▁조 만","▁조 성","▁조 정","▁모 토로","▁의 장","▁나 눌","▁연 대","▁연 세","▁연 소","▁연 행","▁발 산","▁서 방","▁상 상","▁상 자","▁관 해","▁부 근","▁부 담","▁부 채","▁부 처","▁부 친","▁분 배","▁분 지","▁분 자와","▁때 에도","▁사용 하기도","▁사용 자들은","▁원 나라","▁\" 어","▁미 치","▁미 치는","▁동 기","▁동 반","▁동 형","▁동 호회","▁동 성애","▁3 ,","▁3 당","▁3 대","▁3 ·1","▁선 교","▁선 사","▁선 행","▁도 덕","▁도 움을","▁성 능","▁성 격을","▁후 에도","▁세 력이","▁세 웠다.\r\n","▁해 에","▁계 급","▁계 수","▁계 통","▁불 규칙","▁오 랜","▁오 르","▁결 의","▁반 전","▁반 해","▁영 결","▁내 렸다.\r\n","▁양 을","▁양 이","▁formula_1 를","▁무 료","▁무 역","▁무 효","▁두 드러","▁어 휘","▁스 탠","▁스 프","▁거 두","▁거 시","▁에 도","▁최 대의","▁20 %","▁특 유","▁대한민국 에","▁대한민국 을","▁예 니","▁예 상","▁예 시","▁예 로는","▁초 창","▁초 이는","▁우 간","▁우 승","▁추 대","▁추 론","▁일본 이","▁말 한","▁경우 의","▁강 연","▁대해 ,","▁파 업","▁차 수","▁한국 을","▁되 자","▁되 고,","▁입 자를","▁입 장에서","▁공간 ,","▁포 갬","▁포 켓","▁포 털","▁명 명","▁재 야","▁재 직","▁재 신임을","주의 와","주의 적","▁방정식 에","▁집합 이","▁크 로","▁크 릭","▁크 기의","▁크 라메","▁행 사","▁행 위","▁정의 하였다.\r\n","▁외 의","▁장 남","▁장 례","에게 서","▁P S/2","▁확 산","▁로 저","▁학 자들은","▁법 을","▁직 관","컴퓨 팅","되었 다는","▁위키 낱말","▁연구 소","▁쓰 인","▁서울 대","▁통해 ,","▁간 섭","▁간 에","▁간 행","▁음 수","▁음 수는","▁6 년","▁안 정","▁임 계","▁수학 과","▁수학 에서","▁수학 적으로","▁김 경","▁김 지태","▁존재 하며,","▁들어 와","▁데 카르트","▁국가 가","▁국가 이다.\r\n","면, \r\n","▁이론 과","▁요 시","▁새 정치","▁저 격","▁근 처","▁10 만","▁10 분","1년 에","▁7 0","▁7 5","▁건 너","▁건 물을","▁자유 로운","▁식 별","▁표현 된다.\r\n","운동 으로","▁리 스","▁양자 장","▁얻 고","▁합 은","▁총 학생회","▁포함 되었다.\r\n","▁포함 되어","▁formula_4 를","▁formula_4 에","▁애 도","▁애 틀랜","▁못 하였다.\r\n","▁194 4년","▁194 1년","▁194 6년","▁주장 을","▁18 세기","▁196 5년","▁과학 ,","▁구조 가","▁구조 는","▁구조 에","▁분야 를","▁실험 적으로","▁중심 지","▁온 도를","▁위키백과 를","▁게임 의","▁정치 에","▁표기 한다.\r\n","▁표기 법을","▁관련 한","▁창 작","▁호 는","▁호 텔","▁모두 가","▁문서 가","▁0 ,","▁0 1","▁0 보다","▁프로그램 들은","▁완 간","▁설명 하고","▁힘 들","▁중국 과","▁화학 결합","시키 고,","▁결과 ,","▁결과 로","▁충 격을","▁대부분 은","▁기술 의","▁구성 할","▁성질 들을","▁디 렉터","▁높 이","▁앙 페르","▁195 4년","▁195 1년","▁195 6년","▁카 이","▁규 모의","▁엔 지니어","▁토 머스","▁다양 하게","▁개념 이","▁알려 졌다.\r\n","▁기준 계","▁의미 하는","▁영향 으로","▁참여 하였다.\r\n","▁자신 을","▁시대 에","▁시대 에는","▁있었 고","▁있었 다고","▁있었 으나","▁있었 으나,","▁여기서 \r\n","▁살 펴","▁살 았다.\r\n","▁살 리에","▁일부 가","▁시스템 에서","▁formula_6 5","▁플 라스","▁극 복","▁올 림","▁192 9년","▁192 7년","위원 회의","위원 회를","▁상태 가","▁상태 를","▁상태 에서","▁I I","▁I P","이었 으며,","▁했 을","▁했 으나","▁했 지만,","▁조사 에","▁원소 가","▁나타내 면","▁나타내 었다.\r\n","▁조선일보 를","▁연산 자는","▁러시아 어를","▁계속 되어","▁클 러","▁비롯 하여","▁인터넷 에","▁투 자","▁있어 야","▁S K","▁업 적","▁속도 에","▁속도 와","▁자료 는","▁전쟁 이","▁첫 째","▁첫 번째","▁협 력","▁협 상을","▁작품 은","▁검찰 의","▁15 일에","▁산업 용","▁4월 에","▁막 기","▁되어 ,","▁독립 을","▁분석 하는","▁농 촌","▁농 협","▁앞 으로","▁앞 에서","들과 의","▁패 배","▁기업 의","▁미분 을","▁누 군","▁통계 학","▁오일러 가","▁확장 할","▁민주당 은","▁슈 퍼","▁추가 되었다.\r\n","▁왕 조","▁모형 을","▁진행 되었다.\r\n","▁되었 고","▁되었 다고","함수 와","▁절 반","▁노벨 상을","▁증가 하고","▁헌법 에","▁끝 내","▁이전 에는","▁30 여","▁커널 의","▁발달 하여","▁해석 적","▁상당 한","▁성공 을","▁거리 의","▁프로젝트 는","▁효 율","▁이해 를","▁대응 되는","▁한반 도는","▁아이 소","방정식 은","방정식 을","▁수상 자","▁제국 이","▁통일 민주당","▁통일 국민","▁사용자 에게","▁사용자 들의","가능 한","▁생성 되는","▁날 이","▁폭 발","▁유지 하는","▁반대 되는","▁각운동량 의","▁엔트로피 를","조선 일보","▁L -","▁방송 ,","▁최근 에","▁역사 는","▁역사 적으로","▁받았 으며,","▁루 이","▁면 에서","▁유닛 에게","▁방문 했다.\r\n","▁군사 적","▁잡 은","▁홍 보","▁외교 적","▁좌표 계","▁기초 를","▁보존 법칙","▁설치 하여","▁반응 을","▁곳 에","▁곳 곳에서","▁전개 는","▁휴 전","▁제곱 근","▁방언 이","▁부르 며,","▁부르 기도","▁달러 에","▁가리 킨다.\r\n","▁일으 켜","▁않았 고,","▁formula_13 의","▁망 델브로","▁몰 락","▁몰 아","ic al","▁쓴 다.\r\n","▁아미노산 이","▁특징 이","▁학문 이다.\r\n","▁북한 의","▁조선민주주의인민공화국 을","▁움직 임","▁스타크래프트 의","▁적분 은","▁190 5년","▁일제 강점","▁근대 적","an t","▁답 을","▁칼 리","▁칼 텍","▁22 일","▁합성 곱","▁난 징","▁잠 실","▁이주 했다.\r\n","▁이주 노동","▁생활 을","▁종교 적","▁따라서, \r\n","▁지지율 은","▁실시 한","▁이외 의","▁한글 은","▁논문 에서","물리 학","▁기하 학적","▁영역 에서","▁여름 에","▁여름 에는","▁운행 을","▁차례 의","▁한나라당 의","스포 르,","▁정규 분포","▁인천 국제공항","▁추상 화","▁알아 낼","▁혁 신","▁자리 잡","▁분향 소를","▁시각 도","▁단백질 의","▁떨어 져","▁일종 의","▁함석헌 은","▁함석헌 이","▁긴 급","▁워 드","활동 을","▁작곡 가","st at","▁O EC","▁소립 자의","▁500 만","▁질문 에","▁왼 손","▁쿠 데타","▁티 베","▁둘러 싼","▁쇼 핑","▁기자 회견","▁구체 적인","▁밀러 의","▁궁 극","세계 대백과사전","▁나누 어","▁젊은 이","▁이적 단체로","▁주지 사","▁삶 을","▁반지 름","▁반지 름이","▁양변 에","▁권한 을","▁권양숙 이","▁급격 히","▁견해 가","▁닫 힌","▁혜 택","광역 시","▁대다 수의","▁오리 건","▁BBS 는","▁아르키메데 스는","▁오스 만","▁획 득","▁공집합 이","▁지니 고","▁유대 인","▁우변 의","▁햄 버거","▁이라 크","▁아민 은","▁또다 른","▁헤이 안","▁왓슨 과","▁꾸 준","▁쟁 취","▁제5 공화국","▁실용 적인","▁소송 을","▁물건 을","▁프랭 클","▁5·1 6","▁새누리 당","▁리서 치","▁누피 디아","▁슈워제네거 는","▁유닉 스","▁개신 교","▁이를테 면","▁왜냐 하면","▁주한미 군","▁웨 일","▁쿨 롱","▁힉 스","▁이화 춘","▁보디빌 더","▁구텐 베르크","▁마침 내","▁총무 비서관","▁DR -DOS","▁뫼비 우스","게누 마","▁크라메 르","▁위키낱말 사전","▁새정치 국민회의","▁OEC D","\" 이다.\r\n","\" 이란","- R","- 50","/ M","1 2","1 3","2 8","2 9","2 만","3 대","5 만","A N","H -","I C","S D","T S","a ch","e w","g le","i a","i r","i v","m a","r e","u m","· 고","× U","’ 라고","▁ :","▁ α","▁ 괄","▁ 괵","▁ 꺾","▁ 넷","▁ 닐","▁ 됨","▁ 득","▁ 똑","▁ 래","▁ 몬","▁ 빙","▁ 섭","▁ 솔","▁ 엘","▁ 잉","▁ 족","▁ 짐","▁ 짜","▁ 찰","▁ 켈","▁ 탁","▁ 탓","▁ 팽","▁ 펠","▁ 힌","▁ 8년","▁ 훼손","가 이다.\r\n","각 형","각 형의","간 에","같 이","거 래","거 움","검 찰","겼 다.\r\n","경 기","경 에","경 영","경 의","고 속도","곱 의","과 도","과 학자","관 에","관 에서","교 로","교 통","기 소","기 하","끄 럼","내 기","네 시아","네 이터","년 에","노 총","놀 이","놀 이,","눗 셈","는 ,","닙 니다.\r\n","다 케시마","단 이","단 협","단 에서","달 을","대 기","덩 어","데 킨","도 ·","동 ,","되 지만,","되 지는","드 림","라 든","란 을","러 가","럼 을","레 건","렸 을","렸 으며,","령 ·","령 을","론 으로","류 에","류 와","률 은","률 이","륭 한","르 의","리 로","리 며","리 인","리 트","리 학","립 된","링 을","마 디","마 키","머 펠","면 의","면 \r\n","무 르","문 ,","문 에","물 게","물 에","미 ,","미 국의","바 다","방 향","범 위","법 의","분 에","사 고","사 조","사 이다.\r\n","사 들은","사 업을","서 비","선 전","설 ·","성 도","성 으로","셴 코","소 했다.\r\n","수 도","시 계","시 스템","시 스턴","식 이다.\r\n","신 ,","신 이","실 업","실 의","실 이","실 에서","심 한","십 만","씨 의","아 ,","안 보","알 의","앵 카","야 마","약 의","양 자","어 버","언 이","었 지만","역 에","열 반응","영 토","오 르크","온 의","외 교","요 일","용 이","우 가","워 서","웨 덴","웨 이","유 사","으 면,","음 의","음 으로","의 적인","이 거나","일 을","입 자와","있 도록","자 기","자 살","자 이","자 라고","작 으로","장 산술","재 홍","적 ·","적 이었다.\r\n","전 ,","전 도","전 서","전 한","점 ,","점 에","정 ,","정 도","정 신","정 지","제 와","조 로","조 와","조 한","족 에","주 인","주 일","준 에","증 으로","진 이","짐 에","집 을","차 의","최 초","코 드","쿠 치","타 이어","텐 셜","토 니","트 롤","티 븐","티 아","파 와","표 로","풍 을","하 의","하 자는","하 나,","한 을","한 의","해 의","해 져","했 기","했 다가","행 정수","헐 리우","호 로","화 학에서","화 학자","화 되기","▁이 기","▁이 란","▁이 룩","▁이 산","▁이 의","▁이 들이","▁이 같은","▁있 으므로","▁1 ⁄","▁1 기","▁1 시","▁1 억","▁1 위","▁1 보다","▁1 000","▁1 시간","▁1 천만","▁대 두","▁대 사관","▁수 감","▁수 십","▁수 익","▁수 평","▁수 산화","▁사 원","▁사 유","▁사 칙","▁그 린","▁그 들이","▁정 계","▁정 하고","▁정 리가","▁한 자의","▁다 가","▁다 룬","▁다 비트","▁가 로","▁가 치","▁가 사의","▁기 약","▁기 피","▁기 쿠치","▁2 개","▁2 천","▁2 차원","▁19 00년","▁전 남","▁전 념","▁전 면","▁전 송","▁전 시","▁전 했다.\r\n","▁일 도","▁일 로","▁일 명","▁일 자","▁일 했다.\r\n","▁일 부분","▁공 의","▁공 장","▁공 표","▁공 학과","▁공 헌을","▁위 성","▁위 헌","▁하 던","▁하 자","▁지 칭","▁지 키","▁지 수는","▁자 금","▁자 리를","▁자 체가","▁시 사","▁시 초","▁시 멘트","▁등 ,","▁등 이다.\r\n","▁중 부","▁중 시","▁것 인","▁것 에서","▁것 들은","하였 을","하였 다는","▁제 4","▁제 의","▁제 자","▁제 의를","▁유 계","▁아 들로","▁아 나톨","▁아 닙니다.\r\n","▁인 상","▁노 름","▁노 선이","▁주 목","▁주 어","▁주 위","▁보 안","▁방 우","▁구 골","▁구 독","▁구 매","▁구 한다.\r\n","▁구 하기","▁경 부","▁경 선을","▁경 향을","▁비 록","▁조 머펠","▁의 심","▁의 학","▁의 석을","▁나 열","▁나 은","▁나 중","▁나 눗셈","▁연 령","▁발 굴","▁발 족","▁서 사","▁서 서","▁서 정","▁여 당","▁여 운","▁개 를","▁상 관","▁상 륙","▁상 임","▁상 에서","▁상 수가","▁부 가","▁부 상","▁부 활","▁분 기","▁분 위","▁분 자의","▁분 수를","▁실 려","▁따 온","▁소 통","▁만 났","▁만 큼","▁통 틀","▁사용 에","▁사용 이","▁사용 되어","▁사용 자를","▁사용 되지","▁사용 자들이","▁사용 되며,","▁원 내","▁원 을","▁\" 그","▁\" 지","▁\" 한","▁\" 문학","▁고 이","▁고 통","▁고 대의","▁미 리","▁미 적분","▁동 서","▁물 러","▁물 려","▁물 론,","▁3 4","▁3 세","▁3 0년","▁3 학년","▁선 임","▁선 전","▁선 진","▁않 도록","▁도 발","▁도 봉","▁도 구를","▁성 격","▁성 사","▁성 행","▁성 향","▁후 일","▁후 단협","▁세 대의","▁함 으로써","▁' 한국","▁해 서","▁해 야","▁계 수는","▁계 수를","▁불 렀","▁오 레건","▁반 미","▁영 남","▁영 문","▁영 장","▁영 등포","▁내 의","▁생 태","▁생 어는","▁생 명의","▁단 계","▁단 독","▁formula_1 와","▁무 관","▁무 작","▁작 아","▁프 레","▁프 리기","▁두 루","▁두 산","▁변 하지","▁변 위는","▁어 긋","▁없 다","▁없 애","▁없 고,","▁없 으며,","▁스 캐","▁스 탈","▁스 웨덴","▁스 티븐","▁마 실","▁마 치","▁마 케","▁많 았다.\r\n","▁5 6","▁5 0여","▁거 세","▁거 리를","▁거 리가","▁에 드","▁에 스","▁에 디터","▁최 병","▁설 은","▁설 정","▁받 기","▁4 6","▁4 대","▁예 는","▁초 청","▁초 파","▁초 등학교","▁추 방","▁추 산","▁진 압","▁일본 국","▁일본 에","▁일본 국의","▁말 기","▁바 와","▁경우 를","▁차 단","▁한국 과","▁한국 에서","▁되 며,","▁입 사","▁입 자가","▁공간 으로","▁공간 에서","▁출 산","▁형 식으로","▁포 기","▁독 서","▁명 목","▁재 산","▁재 현","▁재 혼","주의 에","▁방정식 과","▁방정식 \r\n","▁방정식 이라고","▁집합 으로","▁집합 으로서","▁집합 론의","▁적 대","▁회 고","▁회 장에","▁회 장으로","▁크 고","▁행 성의","▁정의 와","▁시작 하면서","▁장 기","▁장 편","▁장 점이","에게 는","▁P si","▁법 적","▁속 의","▁속 하는","▁직 업","▁가지 게","▁가지 로","되었 기","▁언 덕","▁언 어는","▁미국 이","▁함수 와","▁함수 해석","▁매 장","▁쓰 고","▁쓰 기","▁쓰 이기","▁서울 역","▁서울 올림픽","▁간 접","▁음 운","▁6 ,","▁6 0%","▁안 보","▁안 재홍","▁즉 각","▁컴퓨터 와","▁사람 에게","▁그리 고,","▁김 교","▁김 구","▁김 일","▁김 정","▁김 상봉","▁문제 ,","▁약 분","▁들어 가","▁들어 갔다.\r\n","▁들어 가는","▁정부 로","▁데 데킨","▁열 을","▁열 벡터","▁게 이","▁이론 으로","▁이론 이다.\r\n","▁점 과","▁노동 자들의","▁formula_2 8","▁formula_2 9","▁참 전","▁참 패","▁벡터 가","▁10 시","▁8 일","▁자유 낙","▁자유 민주","▁식 물","▁달 리,","▁광 자","▁자연 의","▁자연 수는","▁자연 스러운","▁formula_3 의","▁리 스트","▁코 리아","▁편 입","▁후보 에","▁후보 와","▁총 선","▁사건 은","▁항 은","▁북 서","▁북 쪽","▁하나 를","▁포함 된다.\r\n","▁197 3년","▁여기 에는","▁9 0","▁9 8","▁아니 라고","▁공식 적으로","▁태 백산맥","▁감 시","▁목 숨","▁질 병","▁전자 ,","▁관계 없이","▁소프트웨어 로","▁민주 노동","▁18 2","▁18 5","▁지역 에서","▁분야 는","▁분야 로","▁분야 에서도","▁계산 하는","▁온 난","▁현대 건설","▁위키백과 에","▁표기 는","▁청 색편","▁갖 지","▁발전 하여","▁개발 되었다.\r\n","▁문서 에","▁0 .0","▁프로그램 은","▁설명 을","▁설명 했다.\r\n","▁설명 한다.\r\n","▁설명 하였다.\r\n","▁설명 하지","▁성질 은","▁수도 가","▁수도 로","▁한편 으로는","▁195 5년","▁카 르","▁PC 의","▁토 론을","▁뒤 ,","▁다양 체","▁의미 로","▁영향 력","▁권 장","▁인터 페이","▁비판 도","▁표준 모","▁표준 편","▁표준 적인","▁경제 성장","로부터 의","▁생각 해","▁시스템 은","▁철 거","▁철 회","▁formula_6 8","▁formula_6 9","▁과정 이","▁복소 수의","▁밝 힌","▁부분 에서","▁극 히","▁제1 4대","▁제1 3대","▁192 5년","▁192 1년","▁193 8년","▁193 5년","▁193 0년대","▁상태 의","이었 고","이었 다고","▁돌 파","▁타 협","▁formula_5 2","▁formula_5 9","▁원소 로","▁나타내 기","▁행렬 식을","▁길 을","▁길 이의","▁연산 을","▁맞 이","▁맞 지","▁채 용","▁문화 는","▁러시아 와","▁심 사","▁책 의","▁책 임을","▁클 리","▁클 릭","▁클 라이","▁대표 이","▁비롯 되었다.\r\n","▁메 인","▁메 커니즘","▁밀 접한","▁formula_7 0","▁formula_7 5","▁formula_7 가","▁인터넷 을","▁투 척","▁원자 력","▁원자 폭탄","▁질량 과","▁질량 의","▁네 덜","▁은 퇴","▁야 기","▁혼 성","▁자료 가","▁아래 와","▁아래 의","▁만들 고,","▁선거 를","▁결정 된다.\r\n","▁협 정을","▁체제 가","▁체제 는","▁체제 로","▁산업 이","▁개인 이","▁K F","▁K BS","▁K ETEL","▁막 을","▁내용 의","▁몇 가지","▁다루 지","▁급 수의","▁둘 을","▁음악 에","▁패 망","▁기업 인","▁미분 은","▁도입 한","▁누 가","▁통계 는","▁작용 을","▁평균 을","▁지방 에","▁지방 에서","▁일본어 가","▁일본어 와","▁회전 축","▁회전 하는","▁확장 된","▁F A","▁정권 이","▁모형 에","▁발생 하는","▁발생 했다.\r\n","▁동치 류","▁임의 로","▁절 댓","▁보수 적인","▁차지 했다.\r\n","▁차지 한다.\r\n","▁헌법 은","▁헌법 을","▁병 진","▁병 합","▁병 원에서","▁윤 보","▁단위 는","▁받아 들이","▁끝 나","▁끝 에","▁켓 을","▁30 일","▁적용 될","▁노동조합 을","▁B 의","▁기계 가","▁발달 한","▁학생 회","▁학생 들이","▁학생 들을","▁서비스 가","▁기반 한","▁중화 학","▁인정 받","▁인정 하지","▁찾 는","▁상수 이다.\r\n","▁추진 한","▁프로젝트 를","▁귀 납","▁귀 향","▁별 도로","▁수상 한","▁제국 은","▁제국 대학","▁보통 은","▁로봇 을","▁대전 이","▁물체 에","▁퍼 텐셜","▁< chem>","▁하여 ,","▁놀 이는","▁놀 이가","▁최근 의","▁빌 려","▁손 을","▁받았 고,","▁졸업 했다.\r\n","▁루 마니아","▁블 랙","▁악 화","▁백과사전 의","▁백과사전 이","▁그렇 다면","▁유닛 을","▁무리 수이다.\r\n","▁건설 ,","▁E EE","▁빠 져","되면서 ,","▁관리 ,","▁관리 하는","▁현상 에","▁최고 위원",".. ..","▁잡 혀","▁좌표 를","▁좌표 계에서","▁좋 다.\r\n","대학교 에서","▁기초 로","▁기초 적인","▁작업 이","▁출판 된","▁출판 하였다.\r\n","▁요구 를","▁돌아 왔다.\r\n","▁캠 은","▁캠 퍼","▁자동 으로","▁보여 준","▁보여 주는","▁구간 은","▁구간 을","▁통신 망","▁재단 이","▁교육 을","▁축 구","▁라플 라","▁떨 어진","▁케 네","▁키 예프","▁제곱 에","▁방언 ,","▁죽 은","▁1년 을","▁일으 켰","▁지금 도","▁견 습","▁뿐 이다.\r\n","▁수행 할","▁가속 도는","▁지배 하에","ic s","▁대학 에","▁국회 는","▁송 병","▁푸 앵카","▁오늘날 의","▁붙 여","▁이야 기가","▁다르 게","▁전하 의","▁일제 의","▁배포 하는","▁상호작용 의","▁전해 진","▁주변 에는","▁잠 재","번째 로","▁가족 과","▁문학 작품","▁내적 을","▁유리수 체","▁상황 이","▁박연차 의","▁라이선 스","▁중요 하다.\r\n","▁중요 성을","▁규칙 에","▁떠 나","▁떠 났다.\r\n","법칙 에","▁어려 움을","▁눈 에","▁흑 체","▁기간 이","▁유용 한","▁운행 되고","▁둔 다.\r\n","▁가르 치는","▁노래 는","▁불확 실","▁무엇 인지","▁행정 구","▁핵심 적인","▁[[분류: 미국의","▁혁 명","▁자리 에서","▁대한제 국","▁대한제 국의","▁출마 하여","▁극한 을","▁훈 민정","▁1인 당","▁나온 다.\r\n","▁진영 의","▁목록 은","▁떨어 뜨","▁가까 이","▁21 일","▁인공 지능","▁의견 이","▁의존 적","▁의존 한다.\r\n","▁블리자 드는",".2 5","el l","▁잃 게","화학 이","▁기온 이","▁비율 은","▁반면 에","▁출시 되었다.\r\n","▁히라가 나는","▁겪 었다.\r\n","▁꼽 힌다.\r\n","분석 ,","▁바람 에","▁법률 을","▁CP /M","▁왼 쪽","▁품 질","▁사라 지고","▁그림 과","▁않아 도","▁어린 이","▁아쿠타가와 는","▁왜 곡","▁콘 서","▁설문 지","▁확실 히","▁덧셈 과","~1 9","▁액 체","▁전반 에","▁보유 하고","▁참고 로","▁저그 는","▁저그 의","▁근삿 값을","▁엄밀 히","▁빚 을","▁이인 제","▁제주 도","▁주민 등록","▁\"노 무현","▁에르 빈","▁에르 미트","▁잇 따","▁이적 단체","▁스위 스","▁진술 했다.\r\n","▁적극 적으로","▁《스타크래프트 》는","▁의사 결","▁강점 기","▁안창호 가","▁업무 를","▁급격 하게","▁닫 혀","▁생명 체","▁편차 는","▁하이젠베르크 의","▁컬 러","▁고정 된","▁'대한 민국","▁키노 는","oo gle","▁꼭 짓","▁이끌 었다.\r\n","▁남상 국","▁열역학 적","▁목소 리를","▁메모 리","▁터치 스크","▁그럼 에도","▁등가 속운동","▁게시 판","▁근본 적인","▁패러 데이","▁LG PL","▁쉬 운","▁옆 에","▁펜 로즈","▁헨 리","▁텐서 곱","장학 회","▁대의 원","▁주인 공","▁점화 식을","▁랭 킹","▁옹 호","▁튜 링","노가 타리","▁지상 파","▁우치 무라","▁알렉 산","</ chem>","▁런 던","▁셋 째","▁쾰 른","▁핸 드","▁마크 업","▁안기 부","▁판문 점을","▁금강 산","▁탄젠 트","▁자원봉 사","-5 E","▁율 리아","▁훌 륭한","▁흘 러","정규 직","▁아타 튀르크","▁경향 신문","▁비상대 론적","▁특유 의","▁애틀랜 타","▁화학결합 에","stat ist","▁티베 트","-R OM","▁탓 에","▁펠 릭스","▁Psi on","▁푸앵카 레","\" 가","% 에","% 이다.\r\n","' 이란","- B","- P","- 리우","1 만","1 명","3 3","3 7","7 ,","7 8","A S","B 의","C A","F A","F C","F DL","L X","M L","S C","T he","V D","e ,","m /s","n et","o g","s e","u l","x +","· 후","– 켓","’ 가","’ 에","’ 와","’ 에서","’ 라는","’ 이라고","” 라는","▁ `","▁ w","▁ 객","▁ 꺼","▁ 났","▁ 낭","▁ 낼","▁ 닌","▁ 던","▁ 덮","▁ 뤼","▁ 맨","▁ 며","▁ 밟","▁ 붉","▁ 빵","▁ 솟","▁ 술","▁ 앤","▁ 욕","▁ 젖","▁ 젤","▁ 첨","▁ 쳐","▁ 춤","▁ 큐","▁ 튀","▁ 팬","▁ 휘","▁ 휩","▁ 9년","▁ an","▁ 튀르크","▁ 헝가","▁ 컴퓨팅","▁ 헐리우","》 은","가 게","가 다","가 쿠","가 이자","각 이","각 에서는","간 을","간 지의","간 선도","갑 차","강 ,","개 혁","게 는","겠 다고","겨 진","격 으로","결 ,","결 을","경 과","경 유","고 에","고 자","공 과","공 장","공 학은","과 학,","관 ,","관 과","관 으로","교 섭","교 수","국 으로","군 에","권 ,","규 하","그 랑","글 로","기 종","기 부터","나 라는","날 레","났 고,","내 에","내 의","너 는","놀 로","놀 리","누 코비","니 커","다 니","다 운","다 윈","당 에서","당 한다.\r\n","대 성","대 백과","대 학에서","더 ,","도 선","도 한","도 이다.\r\n","동 맹","동 아","된 다고","드 에","등 과","디 움","때 ,","라 와","라 의","라 비아","랑 이","랫 폼","레 인","레 프트","레 이터","렸 다고","로 드","론 적인","론 적으로","류 ,","름 은","름 -리우","리 그","리 안","리 어","리 타","린 의","림 ,","림 힘","립 의","마 이","마 쿠","만 은","메 리","명 인","모 니","모 와","모 토","모 니아","무 아","무 역","문 에서","물 에서","미 타","바 람","바 르","바 일","박 물","버 스터","법 ,","변 을","병 원","보 면","보 통","복 궁","부 수","부 채","비 는","비 례","비 로","비 히","사 범","사 로는","색 ,","색 을","생 이","생 인","서 가","서 도","서 의","석 과","선 언","설 ,","설 로","세 는","세 한","세 에서","소 포","소 한","소 프트웨어","속 도를","속 도가","송 금","수 궁","수 함","수 산부","순 환","슬 러","슬 라브","시 나","식 회","싱 턴","아 는","악 산","안 의","았 다고","았 으며,","았 으며","애 를","어 내","어 질","업 ,","었 으나","었 다가","었 는데","역 ,","였 다는","영 ,","예 술","오 ,","오 스","왔 으며,","왕 은","외 국어","용 ,","용 한","우 기","우 나","음 계","의 회","이 게","이 든","이 블","이 상","이 우","이 후","인 들과","일 의","입 니다.\r\n","자 원","자 로서","작 가","장 일","저 장","적 이라고","적 이지","전 문","절 로","절 의","점 과","점 에서","정 연","제 에","졌 지만","조 사에","족 과","족 의","주 식회","즈 는","즈 의","즈 니스","즐 거움","지 상","지 고,","지 로는","지 방법","진 수","차 방정식","책 으로","척 ,","천 여","철 에","체 역학","체 제를","총 연맹","층 과","친 목","카 드","크 와","크 놀로","키 의","타 미","태 의","토 론","튀 름-리우","트 르","트 북","파 로","편 마","평 가","프 란","피 레프트","하 자,","학 으로","학 위를","해 와","해 지고","행 을","협 상","협 정","협 회의","호 선","호 에","호 의","화 기","화 하기","화 학의","화 하면","황 과","황 을","회 로","▁이 고","▁이 남","▁이 디","▁이 슈","▁이 웃","▁이 정","▁이 혼","▁있 듯","▁있 기도","▁있 다\"고","▁있 느냐","▁1 이","▁1 주","▁1 세기","▁1 /2","▁대 남","▁대 로","▁대 역","▁대 폭","▁대 학을","▁대 통일","▁대 검찰","▁수 면","▁수 사가","▁수 치가","▁사 영","▁사 임","▁사 저","▁그 곳","▁그 레","▁그 보다","▁그 곳에서","▁정 교","▁정 기","▁정 비","▁정 토","▁정 리는","▁정 식으로","▁정 계에","▁정 해진","▁한 다","▁한 쪽","▁한 자를","▁한 자와","▁한 계가","▁한 사람","▁가 난","▁기 구","▁기 인","▁기 획","▁기 수의","▁기 사와","▁기 점으로","▁2 ~","▁2 일","▁2 .\r\n","▁2 .0","▁전 락","▁전 사","▁전 위","▁전 임","▁전 차","▁전 기와","ula r","▁일 은","▁일 찍","▁공 사","▁공 을","▁공 장을","▁공 리가","▁공 정한","▁공 장에서","▁공 기업","▁공 안정","▁위 기","▁위 주의","▁하 늘","▁하 도록","▁지 급","▁지 름","▁지 침","▁지 켜","▁지 냈다.\r\n","▁지 적이","▁자 체를","▁시 가","▁시 삽","▁시 카","▁시 키","▁등 식을","▁중 구","▁중 동","▁중 지","▁중 형","▁중 에서도","▁중 이던","하였 기","하였 다가","▁제 창","▁제 출","▁제 헌","▁제 약을","▁제 치고","▁유 학생","▁아 닐","▁아 산","▁아 스","▁아 우","▁인 왕","▁인 지","▁노 이","▁노 력을","▁노 트북","▁같 아","▁같 다고","▁주 니","▁주 립","▁주 축","▁보 지","▁보 았다.\r\n","▁보 이기","▁보 어의","▁보 내는","▁방 어","▁방 재","▁방 해","▁구 도로","▁경 로","▁경 전","▁경 복궁","▁비 는","▁비 오","▁비 자","▁비 중","▁비 정규직","▁조 절","▁조 치","▁조 국통일","▁모 니","▁모 임을","▁모 놀리","▁모 바일","▁의 식","▁의 외","▁나 는","▁연 간","▁연 금","▁연 봉","▁연 평균","▁국 세","▁국 토","▁서 거","▁서 구","▁서 명","▁서 부","▁서 초","▁서 쪽으로","▁문 인","▁문 장을","▁여 가","▁여 진","▁개 봉","▁개 시","▁개 업","▁개 체","▁개 헌","▁상 위","▁상 응","▁상 좌","▁상 주","▁부 탁","▁부 패","▁부 통령","▁분 과","▁분 노","▁분 자가","▁분 자를","▁때 도","▁때 만","▁실 직","▁실 정이다.\r\n","▁따 름","▁따 서","▁소 재","▁소 식을","▁소 규모","▁만 한","▁만 델브로","▁사용 될","▁사용 을","▁사용 자는","▁원 에","▁원 리가","▁원 인이","▁\" \"","▁\" g","▁\" 내","▁\" 도","▁\" 오","▁\" 나는","▁\" 한국","▁\" a\"","▁\" statist","▁고 객","▁고 민","▁고 체","▁고 타","▁미 소","▁미 치지","▁동 의","▁동 창","▁동 해","▁물 과","▁3 3","▁3 9","▁3 개의","▁3 개월","▁표 방","▁표 기를","▁표 트르","▁선 구","▁선 보","▁선 을","▁않 으며,","▁않 으며","▁도 메","▁도 브","▁도 착","▁도 스를","▁도 형의","▁도 플러","▁성 취","▁성 분을","▁성 향을","▁성 향의","▁후 배","▁후 의","▁후 진","▁세 웠","▁함 의","▁운 반","▁' 고","▁' 무","▁' 다케시마","▁' 즐거움","▁해 병","▁해 의","▁해 체","▁계 가","▁계 수가","▁불 안","▁불 렀다.\r\n","▁오 보","▁오 산","▁결 별","▁결 론을","▁집 에서","▁있는 ,","▁있는 지","▁반 성","▁반 정부","▁반 비례","▁영 상","▁영 점을","▁내 걸","▁내 에서는","▁내 접하는","▁생 식","▁생 체","▁생 리학","▁양 산","▁양 은","▁양 으로","▁단 행","▁단 어가","▁단 계에서","▁formula_1 -힐베르트","▁무 너","▁무 연","▁무 장","▁프 린","▁두 개의","▁변 이","▁어 원은","▁어 시스턴","▁없 으나","▁없 으나,","되어 ,","▁스 튀름-리우","▁노무현 에","▁마 다","▁마 사","▁마 친","▁5 1","▁5 4","▁5 5","▁5 7","▁5 공","▁5 천","▁5 .1","▁5 0만","▁5 000만","▁거 점","▁거 리는","▁거 기서","▁거 슬러","▁과 목","▁최 악","▁최 규하","▁20 분","▁특 성은","▁당 원","▁당 일","▁당 초","▁4 4","▁4 8","▁4 년","▁4 .1","▁4 0%","▁예 외","▁초 점을","▁초 전하","▁우 호","▁우 위를","▁우 리의","▁추 세","▁진 입","▁진 정","▁일본 은","▁일본 제","▁일본 으로","▁말 이다.\r\n","▁말 에는","▁바 라","▁바 이어","▁운동 과","▁강 행","▁강 제로","▁대해 \r\n","▁신 경","▁신 군","▁신 분","▁신 행정수","▁역 원","▁역 사를","▁평 소","▁파 이","▁차 원은","▁한국 어를","▁한국 전쟁","▁알 타이어","▁되 찾","▁되 는데,","▁입 원","▁입 증","▁입 체","▁공간 들의","▁나타 날","▁남 궁","▁남 동","▁남 방","▁남 한","▁남 기고","▁형 식을","▁포 르","▁포 틀랜","▁독 점","▁독 도를","▁체 육","▁체 코","▁체 계를","▁체 계가","▁명 시","▁명 성을","▁명 제를","▁재 귀","▁재 미","▁더 하기","▁교 체","▁교 향","▁방정식 에서","▁집합 이며,","▁적 지","▁적 색편","▁회 절","▁회 장을","▁회 사가","▁크 즐","▁행 태","▁정의 에서","▁시작 했고,","▁종 결","▁종 동","▁종 목","▁종 속","▁장 국","▁장 르","▁장 면","▁201 9년","▁복 제","▁복 합","▁P P","▁법 무","▁법 통","▁속 한","▁직 합","▁가지 기","▁가지 지","▁가지 고,","▁것이 다.","▁것이 라든","되었 던","되었 을","되었 지만","▁미국 ,","▁미국 을","▁미국 인","▁미국 으로","▁연구 에서","▁연구 한다.\r\n","▁연구 하였다.\r\n","▁함수 에","▁매 각","▁쓰 던","▁쓰 면","▁쓰 이고,","▁간 결","▁간 조의","▁이용 된다.\r\n","되는 데,","▁음 모","▁음 이","▁음 수의","▁6 7","▁논 리를","▁안 내","▁안 티","▁임 신","▁임 기를","▁임 기는","▁컴퓨터 로","▁그리 하여","▁그리 스의","▁김 성","▁김 홍","▁산 출","▁산 화","▁산 소를","▁조선 의","▁삼 한","▁들어 서는","▁데 뷔","▁데 이","▁데 에는","▁데 스크","▁하는 데","▁일반 적이다.\r\n","▁국가 에서는","▁게 오르크","▁이론 ,","▁이론 적","▁이론 에서","▁점 ,","▁점 이다.\r\n","▁사이 언","▁사이 트를","▁요 리","▁새 롭게","▁저 렴","▁근 방","▁10 5","▁8 개의","▁7 ,","▁7 대","▁7 0여","▁라 그랑","▁자유 민주주의","▁활 성","▁세계 에","▁달 하였다.\r\n","▁광 범위","운동 에","▁이루 었다.\r\n","▁자연 수가","▁자연 과학","▁formula_3 9","▁formula_3 3의","▁리 소","▁리 마스터","▁코 드를","▁처 럼","▁번 개","▁합 격","▁합 당","▁합 류","▁사건 의","▁사건 에서","▁북 동","▁북 미","▁북 위","▁북 핵","▁하나 하","▁포함 되지","▁formula_4 9","▁12 일에","▁사회 에서","▁9 일","▁아니 고","▁아니 냐","▁태 평양","▁애 드","▁애 초","▁애 도의","▁감 추","▁감 상하는","▁못 하는","▁주장 도","▁소프트웨어 ,","▁C O","▁C 의","▁‘ TV","▁‘ engine","▁방법 이다.\r\n","▁방법 으로는","▁취 직","▁196 6년","▁과학 에","▁피 난","▁피 의","▁피 아노","▁피 에르","▁운영 하고","▁구조 ,","▁실험 이","▁실험 에서","▁중심 에","▁계산 에","▁계산 은","▁온 도","▁온 도가","▁온 도,","▁현대 에","▁본 부","▁본 토","▁본 관은","▁게임 에","▁11 시","▁정치 적으로","▁국민 장으로","▁표기 할","▁표기 하는","▁민 영","▁관련 을","▁관련 이","▁G FDL","▁갖 춘","▁창 업","▁호 스트","▁모두 를","▁발전 이","▁발전 해","▁발전 했다.\r\n","▁개발 을","▁프로그램 들이","▁프로그램 들을","▁인구 의","▁설명 은","▁설명 이","▁설명 하기","▁힘 에","▁중국 에서","▁중국 에서는","▁중국 어를","시키 면,","▁위치 가","▁위치 와","▁위치 한다.\r\n","▁위치 하고","▁기술 과","▁기술 로","▁기술 은","▁기술 적","▁기술 자는","▁구성 된다.\r\n","▁발표 되었다.\r\n","▁성립 할","▁성립 하는","▁성립 하지","▁발견 되는","▁순 으로","▁수도 인","▁곱 은","▁곱 으로","▁카 피레프트","▁PC 는","▁증명 했다.\r\n","▁증명 된다.\r\n","▁뒤 를","▁개념 으로","▁개념 이다.\r\n","▁기준 계에서","▁참여 한","▁참여 할","▁참여 하여","▁기본 으로","▁시대 라고","▁실수 체","▁있었 는데,","▁금 품을","▁시간 당","▁시간 의","▁물리학 에서","▁물리학 상은","▁생각 된다.\r\n","▁우크라이나 에","▁삼각 함수가","▁시스템 에","▁시스템 이","▁용 산","▁용 인","▁용 어가","▁철 저","▁formula_6 0","▁formula_6 3","▁formula_6 4","▁부분 에","▁부분 을","▁부분 이","▁부분 으로","▁아닌 ,","▁극 좌표","▁극 심한","▁올 리","▁올 렸다.\r\n","▁제1 회","▁뜻 으로","▁치 환","▁192 8년","▁192 2년","▁승 리를","위원 장","위원 으로","▁구글 이","▁상태 로","▁I T","이었 고,","이었 으며","▁사실 ,","▁사실 은","▁돌 림힘","▁타 임","▁타 파","▁formula_5 6","▁formula_5 는","▁행렬 로","▁행렬 식의","▁언론 인","▁길 이","▁길 이가","▁길 이와","▁와 서","▁연산 자의","▁연산 자이다.\r\n","▁채 워","▁문화 와","▁러시아 ,","▁클 래","▁클 럽","▁클 라우","▁17 3","▁17 세기","▁대표 하는","▁메 소포","▁밀 려","▁formula_7 3","▁formula_7 7","▁결합 의","▁인터넷 이","▁D VD","▁줄 어","▁줄 여서","▁투 표를","▁업 적을","▁기록 된","▁야 누코비","▁혼 돈","▁이어 졌다.\r\n","▁191 6년","▁유리 수는","▁환 승","▁전쟁 에서","▁아래 는","▁아래 로","▁아래 에","▁조건 으로","▁조건 에서","▁결정 했다.\r\n","▁드 라마","▁드 물게","▁드 무아","▁친 형","▁제2 공화국","▁국제 적인","▁상대 속도는","▁필요 하다.\r\n","▁막 내","▁막 대의","▁독립 적인","▁M ach","▁백 두","▁다루 고","▁다루 기","▁농 민","▁앞 장","들과 는","▁글 자를","▁정책 은","▁도입 하여","▁통계 역학","▁작용 하지","▁브라 –켓","▁A ,","▁A P","▁맥 락","▁테 스트","▁평균 기","▁다항 식으로","▁무한 한","er 의","▁걸 어","▁지방 을","▁지방 의","▁일본어 에서는","▁확장 팩","▁확장 한","▁확장 하여","▁민주당 의","▁F I","▁F .\r\n","▁F re","▁준 이치로","▁진행 되고","▁히 데","▁히 로","▁실제 적인","▁되었 다","▁되었 을","▁되었 으며,","▁되었 으나","▁되었 으며","▁논란 을","▁양자역학 에","▁양자역학 을","▁핵 실험","▁가정 한다.\r\n","▁보수 언","▁2007년 에","▁파일 의","▁차지 하는","▁차지 하였다.\r\n","▁차지 하게","▁들 었다.\r\n","▁병 력","▁도시 가","▁끝 난","▁켓 은","▁켓 의","▁켓 이다.\r\n","▁이전 의","▁30 분","▁적용 된","▁적용 한","▁노동조합 이","▁넘 겨","▁기계 공","▁기계 에","▁발달 로","▁발달 하였다.\r\n","▁발달 되어","▁파동 함수","▁학생 운동","▁T T","▁갈 루","▁않고 도","니아 는","▁대학교 에","▁상당 수는","▁상수 라고","▁형성 하고","▁프로젝트 에","▁이해 하기","▁이해 하지","▁아이 폰","▁아이 디어를","▁프랙탈 은","▁귀 류","▁별 로","▁별 개의","▁별 도의","▁별 명을","▁쿼 크로","▁지구 는","▁중력 은","▁중력 장이","▁분류 할","▁통일 을","▁곱셈 을","▁곱셈 으로","▁벌 였다.\r\n","▁웹 페이지","▁헤 비사이드","▁대신 ,","▁힐베르트 는","▁반대 하는","▁종류 가","▁종류 에","▁하여 금","▁영국 ,","▁맥스웰 이","▁놀 이를","▁놀 이의","▁늘 리","▁대중 적","▁대중 에게","▁빌 의","▁대하여, \r\n","▁주어진 다.\r\n","▁고대 부터","▁해결 하는","▁면 에서는","▁면 적은","▁밖 에도","▁악 의적인","▁이르 고","▁수준 에서","▁formula_8 0","▁유닛 의","▁유닛 이","▁보도 되었다.\r\n","▁보도 하기도","▁방향 의","▁방향 이","▁방향 으로","▁실패 로","▁고려 하여","▁변환 은","▁E P","학자 이자","▁현상 의","▁현상 으로","▁프랑 스,",".. .\r\n","▁formula_9 의","▁공개 적으로","▁인간 을","▁좌표 계를","▁좋 아","▁기초 가","▁의원 이","▁작업 에","▁설치 된","▁요구 하는","▁요구 하기도","▁암 흑","▁침 해","▁14 일","▁14 세기","▁보여 준다.\r\n","▁예술 의","▁재단 의","▁재단 에서","▁알려져 있다.\r\n","▁폐 간","▁폐 쇄","노동 자들은","시켜 야","▁사상 \r\n","▁23 일,","▁전개 를","▁영화 배우","▁허가 를","▁H T","▁케 플러","▁키 이우","▁유사 하다.\r\n","▁유일 하다.\r\n","▁방언 은","▁스칼 라는","▁1년 간","▁대칭 은","▁가리 키","▁일으 키는","▁않았 다고","▁당선 되면서","▁환경 을","▁R OM","▁견 해를","▁망 명","▁수행 하는","▁가속 화","▁지배 를","▁분포 는","▁표시 하는","▁표시 한다.\r\n","▁선언 했다.\r\n","▁표기법 으로","▁읽 을","▁한총련 은","▁경찰 이","▁국회 에서","▁불리 며,","▁특징 은","▁행동 이","▁북한 에","▁조선민주주의인민공화국 과","▁조선민주주의인민공화국 은","▁박정희 의","▁움직 인","▁송 금","▁압 력을","▁퇴 화","▁전통 적으로","▁일어나 는","▁공동 으로","▁지적 도","▁지적 했다.\r\n","▁지적 하였다.\r\n","▁변경 하였다.\r\n","▁신문 으로","▁교토 시","▁오늘날 까지","▁오늘날 에도","▁이야 기,","▁수소 와","▁190 1년","▁종족 은","▁종족 이","▁확률 을","▁배포 판","▁찬 성","▁전문 가","▁전해 진다.\r\n","▁2000년 에","▁초월 수의","▁맡 았다.\r\n","▁다만 ,","▁생활 에","▁formula_10 에","▁평화 상","▁평화 상을","▁지지율 을","▁IBM 의","문학 이","▁수집 하고","▁제품 을","▁부정 적","▁내적 은","▁체계 이다.\r\n","al l","▁석 유","▁석 탄","경제 신문","▁유카와 의","▁국내 외","▁불구 속","▁불구 하고,","위원회 에","▁터키 시","▁터키 의","▁기하 학","▁시도 하였으나","▁활용 한","▁규칙 을","▁떠 오","▁트 랜","▁트 럭","▁홀 로","▁홀 수","▁통합 하여","▁통합 민주당","▁변호 사로","▁어머니 는","▁바뀌 었다.\r\n","▁나타나 고","▁명칭 은","▁명칭 을","▁클린턴 과","▁접근 을","▁접근 할","▁담당 하는","▁절대 적인","▁커뮤니티 가","▁커뮤니티 는","▁흑 백","▁지나 지","▁유용 하다.\r\n","▁인사 들이","▁차례 로","▁플랑크 의","▁능 력이","선거 에서","스포 드","▁수열 은","▁수열 의","▁가르 치","▁가르 침","▁제조 업체","▁개혁 을","▁1998년 에","▁화합 물의","연구 소","▁사법 처리","▁선출 되었다.\r\n","▁영토 를","▁출마 를","▁목표 는","▁GPL v","▁GPL 의","▁밝혀 졌다.\r\n","▁x 86","▁단백질 은","▁땅 에","▁울 릉","▁의견 도","▁부족 한","▁집중 적으로","▁집중 되어","▁들어서 면서","▁드러 나","▁갈등 을","▁멀 리","▁옥 스포드","▁옮 긴","▁워 싱턴","▁중간 자","▁인도 네시아","▁관성 텐서","▁오른 손","▁엔탈피 의","▁치러 졌다.\r\n","▁새천년민주당 은","▁새천년민주당 의",".7 %,","▁끼 쳤다.\r\n","▁섬 유","▁풍 부","▁제3 공화국","▁바람 이","▁프로토 스","▁항등 식","▁징 집","▁흥 미를","▁그림 을","▁보일 은","▁부등 식은","▁재판 을","▁선형대수 학의","▁묻 는","▁숫 자","▁대륙 성","▁인류 의","▁구체 적으로","▁설문 지는","▁인구밀 도는","▁밝히 는","▁맞추 어","▁전자기파 의","▁벨 라","▁벨 기에","▁액 션","▁탐 구","▁전반 적으로","▁공용 어는","▁방일 영은","▁비례 한다.\r\n","▁발간 한","▁내각 을","▁변인 \r\n","▁알고 리즘","▁활발 히","▁짧 은","▁희 곡","▁희 생","▁이인 규","▁일치 한다.\r\n","▁제정 하여","▁서양 의","▁결성 하여","▁출간 한","▁현재까지 도","▁테란 의","▁베르누 이가","명/km2 ,","-아 미노산","▁잇 는","▁착 수","▁아무 런","▁세워 진","▁세워 졌다.\r\n","▁스위 스의","▁필수 적인","▁완전 한","▁채취 할","▁혼합 형","▁헌법재판 소의","▁여론조 사","▁덕 수궁","▁인식 하고","▁보여주 었다.\r\n","▁y ,","▁납 북","▁컨 트롤","▁모순 이","▁연주 를","▁원자핵 의","▁독립운동 가","▁중성미 자","▁중성미 자는","▁써 서","▁짓 고","▁다니 엘","▁목적 의","▁베이 징","▁찬양 하는","▁멀티 플레이","▁꼴 의","▁돕 기","▁띠 고","▁셀 빅","기관 의","다” 라고","▁실질 적인","▁통상 적인","▁내놓 았다.\r\n","▁남겼 다.\r\n","▁종로 구","▁186 1년","▁타이 완","▁데이터베이 스","▁낙선 했다.\r\n","▁피시방 은","▁링크 를","생물 학","▁자발 적으로","▁조금 씩","▁표제 어","▁해양 수산부","▁카터 는","▁홈페이지 에","ec t","ob ot","▁몫 집합","▁샌 프란","▁숭 실","▁보스 -아인슈타인","▁내세 웠다.\r\n","▁존중 받","▁운동에너지 는","▁한국대학총학생회연합 은","▁엔터테인먼 트가","▁균 형","▁벤 젠","▁평안 북도","▁알파 벳","▁화강 편마","▁사회진화 론","▁청계 천","▁플로 피","▁formula_53 에","▁메이 오","▁브라우 저","▁르네 상","▁옥스퍼 드","▁힐 러리","간첩 단","스럽 게","클리 스트","▁정사각 행렬","▁자전 거","▁분모 에","▁해밀 토니","▁강수 량은","▁장학 금을","▁CD -ROM","▁헤르 츠","▁놀라 운","enc e","▁3.141 59","▁멘델 레","▁까 닭","▁횡 령","▁일컫 는","▁공과 대학교","▁중소 기업","▁연소 열","▁우간 다","▁저격 수","▁카이 저","▁클러 스터","▁아이소 스핀","▁쇼핑 몰","▁기자회견 을","▁꾸준 히","▁득 표","▁래 리","▁몬 테","▁찰 스","서비 스","▁아나톨 리아","▁방우 영","▁나중 에는","▁통틀 어","▁고이 즈미","▁오레건 주","▁무작 위","▁데데킨 트","▁자유낙 하하는","▁자유민주 연합","▁클리 닉","▁클라이 언","▁네덜 란드","▁케네 디","▁닌 텐","▁휩 싸","▁an d","▁대검찰 청","▁모놀리 식","▁만델브로 트","▁스튀름-리우 빌","▁데스크 톱","▁광범위 하게","▁메소포 타미","▁야누코비 치가","▁드무아 브"]}}